// Copyright 2022-2024 NXP.
// All rights reserved.
// SPDX-License-Identifier: BSD-3-Clause

// Neutron Converter Version: 1.2.0+0X1c933f1b
// Neutron Microcode Version: 0X1c933f1b

/*
// Register operators for TFLite Micro.
static tflite::MicroMutableOpResolver<3> s_microOpResolver;
s_microOpResolver.AddMaxPool2D();
s_microOpResolver.AddSoftmax();
s_microOpResolver.AddCustom(tflite::GetString_NEUTRON_GRAPH(), tflite::Register_NEUTRON_GRAPH());
*/

#define MODEL_NAME "MIX_LMUEBCnet_1D_normalized_int8_npu.tflite"
#define MODEL_SIZE 11824

static const unsigned char model_data[] __attribute__((aligned(16))) = {
  0x10, 0x00, 0x00, 0x00, 0x54, 0x46, 0x4c, 0x33, 0x00, 0x00, 0x00, 0x00,
  0x00, 0x00, 0x00, 0x00, 0x32, 0xd8, 0xff, 0xff, 0x03, 0x00, 0x00, 0x00,
  0xac, 0x2d, 0x00, 0x00, 0xb8, 0x27, 0x00, 0x00, 0x4c, 0x27, 0x00, 0x00,
  0x04, 0x00, 0x00, 0x00, 0x06, 0x00, 0x00, 0x00, 0x3c, 0x27, 0x00, 0x00,
  0xd4, 0x25, 0x00, 0x00, 0x10, 0x25, 0x00, 0x00, 0xfc, 0x24, 0x00, 0x00,
  0x48, 0x21, 0x00, 0x00, 0x04, 0x00, 0x00, 0x00, 0x06, 0xd8, 0xff, 0xff,
  0x04, 0x00, 0x00, 0x00, 0x34, 0x21, 0x00, 0x00, 0x01, 0x01, 0x01, 0x01,
  0x01, 0x01, 0x00, 0x00, 0x3e, 0x12, 0xf0, 0x80, 0x58, 0x17, 0x44, 0x1a,
  0x43, 0x92, 0x75, 0x03, 0xca, 0x17, 0x92, 0x17, 0x34, 0x8f, 0x0c, 0x9a,
  0x38, 0x12, 0x24, 0x1b, 0xfa, 0x96, 0xc9, 0x93, 0x13, 0x1b, 0xce, 0x17,
  0x64, 0x01, 0x28, 0x9a, 0xd8, 0x92, 0xf8, 0x17, 0xb2, 0x97, 0x50, 0x96,
  0x9f, 0x1a, 0x08, 0x0e, 0x35, 0x4a, 0x31, 0x4b, 0x08, 0x4e, 0x96, 0x4b,
  0xf1, 0x4b, 0x1b, 0x4b, 0x31, 0x4b, 0xe6, 0x4b, 0x89, 0x38, 0xc0, 0xc0,
  0x89, 0xed, 0x81, 0xd6, 0xeb, 0x81, 0xfc, 0x2c, 0x06, 0x00, 0x7f, 0xec,
  0x14, 0xf9, 0x81, 0x22, 0x2b, 0xfb, 0x81, 0xd9, 0x3e, 0xeb, 0x5e, 0xde,
  0x07, 0xf0, 0xc6, 0x1a, 0x28, 0x1c, 0x00, 0x00, 0x12, 0x1d, 0x00, 0x00,
  0x8c, 0x51, 0x00, 0x00, 0x06, 0xf9, 0x00, 0x00, 0xd0, 0x0a, 0x00, 0x00,
  0xda, 0x26, 0x00, 0x00, 0x47, 0xeb, 0x00, 0x00, 0x32, 0x06, 0x00, 0x00,
  0x81, 0x54, 0xce, 0x27, 0x6d, 0xf4, 0xfd, 0xf3, 0xea, 0xa6, 0xfa, 0x3a,
  0xee, 0x23, 0x41, 0xef, 0x2c, 0x30, 0xac, 0xe8, 0x30, 0xf9, 0xcb, 0xf5,
  0x37, 0x0f, 0x7f, 0xfd, 0x21, 0x05, 0x3e, 0xf8, 0x3d, 0x0f, 0x00, 0x00,
  0xe2, 0xde, 0x00, 0x00, 0xf4, 0x7c, 0x00, 0x00, 0x20, 0x0e, 0x00, 0x00,
  0xa9, 0x0c, 0x00, 0x00, 0x07, 0xf6, 0x00, 0x00, 0x3e, 0xe9, 0x00, 0x00,
  0xf1, 0x0b, 0x00, 0x00, 0x08, 0x3f, 0xeb, 0xcd, 0x19, 0xc6, 0x3f, 0xfa,
  0xbe, 0x5b, 0x62, 0x19, 0xf1, 0x63, 0x3e, 0xf4, 0x30, 0xf3, 0x09, 0x1f,
  0xda, 0x0c, 0x02, 0x1f, 0x16, 0x39, 0x41, 0xdc, 0xf1, 0x02, 0x7f, 0x05,
  0xe8, 0xe3, 0x00, 0x00, 0xdc, 0x1a, 0x00, 0x00, 0x9f, 0x6f, 0x00, 0x00,
  0x2e, 0xe0, 0x00, 0x00, 0xc0, 0x23, 0x00, 0x00, 0xe7, 0x2d, 0x00, 0x00,
  0xef, 0xdf, 0x00, 0x00, 0x63, 0xf9, 0x00, 0x00, 0x2a, 0x17, 0x7e, 0x92,
  0x23, 0x96, 0xf4, 0x93, 0xe3, 0x0f, 0xa6, 0x0e, 0x86, 0x9a, 0x0d, 0x9a,
  0x69, 0x0f, 0x2d, 0x16, 0x7d, 0x9a, 0x04, 0x92, 0xe9, 0x81, 0x36, 0x0f,
  0x68, 0x96, 0x33, 0x9a, 0xd8, 0x8f, 0xca, 0x0b, 0x17, 0x9a, 0x3c, 0x12,
  0xfa, 0x8a, 0xda, 0x8e, 0x80, 0x17, 0x24, 0x8f, 0x19, 0x96, 0xf9, 0x12,
  0xad, 0x0e, 0xf8, 0x97, 0x48, 0x87, 0x89, 0x17, 0x42, 0x93, 0x38, 0x9a,
  0x64, 0x8a, 0x3a, 0x1b, 0x72, 0x93, 0xd1, 0x93, 0x65, 0x4b, 0x1d, 0x4a,
  0x48, 0x4a, 0xe4, 0x47, 0x94, 0x4a, 0xb2, 0x47, 0xd1, 0x4a, 0x3f, 0x46,
  0x65, 0x4a, 0x24, 0x46, 0x65, 0x4a, 0x49, 0x4a, 0xed, 0xde, 0xfc, 0xdd,
  0xfb, 0xfd, 0x1d, 0x35, 0x81, 0x1d, 0xcd, 0x1a, 0x13, 0x2b, 0xf4, 0x07,
  0x8d, 0x31, 0xd2, 0x81, 0xf0, 0x00, 0xf6, 0x05, 0xd0, 0x49, 0xe5, 0xb7,
  0x2d, 0x13, 0xff, 0xee, 0xf6, 0x0f, 0xdf, 0xe4, 0x38, 0x4a, 0xef, 0x20,
  0x99, 0xe9, 0x0c, 0x37, 0xf3, 0xfe, 0x0f, 0x05, 0x20, 0x3f, 0x19, 0x35,
  0x05, 0x08, 0x24, 0xed, 0x7e, 0x43, 0x5e, 0xd5, 0x0a, 0xfc, 0xdb, 0xdf,
  0x4c, 0xf7, 0xf1, 0xe4, 0x98, 0xad, 0x31, 0x25, 0xac, 0xe5, 0x0f, 0xa6,
  0x05, 0xfc, 0x08, 0xe5, 0x35, 0x41, 0xef, 0x27, 0xeb, 0xf6, 0x01, 0xfb,
  0x0e, 0x3d, 0x17, 0xdf, 0x09, 0xfb, 0x11, 0xd3, 0x3c, 0xd7, 0x25, 0x20,
  0xee, 0x7f, 0x83, 0xc9, 0x01, 0x0c, 0x33, 0x05, 0x00, 0x0a, 0xfb, 0x15,
  0xf4, 0xea, 0x8c, 0x1a, 0x0a, 0x0d, 0xe4, 0xf3, 0xe5, 0x2b, 0xfb, 0xdf,
  0x01, 0xff, 0xfe, 0xec, 0x4b, 0x81, 0x20, 0x01, 0x30, 0x43, 0xce, 0x39,
  0xc5, 0x22, 0xf7, 0x44, 0xf1, 0x81, 0xf5, 0x06, 0x58, 0xf9, 0xdf, 0x3c,
  0x15, 0x7f, 0xf2, 0x12, 0x2e, 0xb0, 0x05, 0x41, 0xd2, 0x81, 0xee, 0xcd,
  0x46, 0x26, 0x1b, 0x00, 0x28, 0xe5, 0x0f, 0xd7, 0xd4, 0x13, 0x0d, 0xb7,
  0x03, 0x08, 0xf7, 0x09, 0x45, 0xb9, 0xd7, 0xd3, 0xf0, 0xf3, 0xf8, 0xee,
  0x81, 0x99, 0xbb, 0x8d, 0x22, 0x0c, 0x02, 0xdb, 0x3a, 0x86, 0x02, 0x12,
  0x0c, 0x2d, 0x14, 0x18, 0xee, 0xc9, 0xd2, 0xcd, 0x81, 0x48, 0xe1, 0xeb,
  0x60, 0xdc, 0x52, 0x17, 0x3f, 0xd8, 0x23, 0xe4, 0x0c, 0x4d, 0xeb, 0xd3,
  0x2c, 0x08, 0xff, 0x1a, 0xa1, 0x2f, 0x10, 0x99, 0x4a, 0x7f, 0xf1, 0x1b,
  0x1b, 0x3f, 0xfa, 0x2e, 0x28, 0xbb, 0x2a, 0x89, 0xb3, 0x3f, 0xd4, 0x2d,
  0x05, 0x08, 0x22, 0x32, 0x3c, 0x0c, 0xa1, 0xa7, 0x03, 0x2d, 0x50, 0x87,
  0x05, 0xbe, 0x18, 0x75, 0xfc, 0xe9, 0x0b, 0xc5, 0x3c, 0x7f, 0x24, 0x4b,
  0x7c, 0x88, 0xcc, 0xd0, 0x27, 0x2c, 0x81, 0xe2, 0x05, 0xe3, 0xff, 0xa9,
  0xd3, 0xa9, 0xa3, 0xbd, 0x1b, 0xe6, 0x04, 0xb9, 0x40, 0x01, 0x5d, 0x96,
  0x35, 0x12, 0xc4, 0x8f, 0x2d, 0x92, 0x53, 0x8a, 0xab, 0x8a, 0x7d, 0x06,
  0x11, 0x96, 0x10, 0x92, 0x8f, 0x8a, 0x72, 0x92, 0x11, 0x93, 0x5e, 0x03,
  0x5f, 0x92, 0xea, 0x8f, 0x47, 0x96, 0x4f, 0x0e, 0x2c, 0x93, 0x6d, 0x92,
  0x1c, 0x93, 0xfe, 0x80, 0xd6, 0x92, 0xa6, 0x8f, 0xdf, 0x87, 0x09, 0x97,
  0x9e, 0x07, 0xa1, 0x02, 0xb9, 0x0e, 0xd4, 0x96, 0x48, 0x8f, 0x04, 0x8a,
  0x52, 0x0f, 0xc5, 0x8e, 0xee, 0x8e, 0x67, 0x0e, 0xb4, 0x42, 0x57, 0x42,
  0x35, 0x43, 0xa3, 0x42, 0xb5, 0x42, 0xeb, 0x42, 0xaa, 0x42, 0xcf, 0x42,
  0xb5, 0x42, 0x5e, 0x42, 0xc1, 0x43, 0x05, 0x43, 0x7f, 0xd0, 0x44, 0x0c,
  0x13, 0xc0, 0xf2, 0xaf, 0xdd, 0x22, 0xf5, 0x50, 0x14, 0x3d, 0xe3, 0x1a,
  0x3b, 0xd8, 0x12, 0xe9, 0x1e, 0x1d, 0xb6, 0xd8, 0xf9, 0x08, 0x7f, 0xbd,
  0xc5, 0x10, 0x33, 0xe5, 0x17, 0xf2, 0x7a, 0x4a, 0xee, 0xbd, 0xf6, 0xef,
  0x0c, 0xe9, 0x4c, 0x4e, 0x41, 0xf1, 0xcf, 0x56, 0x6f, 0xf1, 0x08, 0x24,
  0x1b, 0xf5, 0xe1, 0xc6, 0x09, 0x38, 0x22, 0xf7, 0x02, 0x6e, 0x24, 0xc7,
  0x00, 0x50, 0xb7, 0x6c, 0x86, 0x2f, 0xf6, 0x22, 0x7f, 0x9c, 0x60, 0xf6,
  0xcf, 0xc1, 0x14, 0xf7, 0xcc, 0x81, 0x4b, 0x33, 0xd1, 0x58, 0x0b, 0xf2,
  0xfc, 0xf3, 0xca, 0x72, 0x7f, 0xe7, 0x46, 0x0e, 0xe2, 0x17, 0xbf, 0xfe,
  0xca, 0x1c, 0xe5, 0xff, 0x10, 0x40, 0xe8, 0x8d, 0x1d, 0x2e, 0x3c, 0xe5,
  0xfa, 0x27, 0xe9, 0x0a, 0xff, 0xee, 0xef, 0x0a, 0x24, 0xe7, 0xfb, 0x16,
  0xdf, 0x2c, 0xc7, 0xf4, 0xf9, 0xec, 0x4d, 0x22, 0x08, 0x32, 0x3b, 0x4c,
  0x5e, 0x32, 0xe3, 0x0b, 0xc3, 0xe6, 0xe9, 0x47, 0x3f, 0x03, 0xda, 0x11,
  0x93, 0x24, 0x14, 0x34, 0x07, 0xed, 0x42, 0x15, 0xf2, 0x07, 0x34, 0xe1,
  0x0a, 0xd7, 0x28, 0x0c, 0xfa, 0x4a, 0xe1, 0x09, 0xca, 0xc7, 0x1c, 0x0f,
  0x4c, 0xe3, 0xe5, 0x42, 0x43, 0x01, 0x37, 0xe3, 0x30, 0x55, 0xd7, 0x06,
  0x16, 0x1f, 0xf1, 0x22, 0xb9, 0x02, 0x30, 0xe4, 0x87, 0x14, 0xf7, 0xf8,
  0xc6, 0x33, 0x4f, 0x34, 0x12, 0xa7, 0x20, 0x1f, 0x1e, 0x9c, 0xec, 0xc9,
  0x44, 0x0f, 0x9b, 0xed, 0xa4, 0xde, 0x69, 0x20, 0x04, 0x13, 0x98, 0x30,
  0x26, 0xe9, 0xee, 0x0e, 0x20, 0x22, 0x3b, 0xb7, 0xf2, 0x15, 0x21, 0x52,
  0x9f, 0xe2, 0xba, 0xe2, 0xf3, 0x3d, 0xf3, 0x1c, 0xf3, 0xf5, 0xde, 0xe4,
  0x03, 0xf2, 0x54, 0x35, 0x2c, 0xfd, 0x31, 0xc2, 0xfb, 0xce, 0xd3, 0x2b,
  0x24, 0xe5, 0x72, 0x97, 0x7f, 0xbb, 0x20, 0x1e, 0xb2, 0x5d, 0xcb, 0xf1,
  0x98, 0x7f, 0xfe, 0x3f, 0xc5, 0x69, 0x64, 0xe4, 0xf1, 0x81, 0xe5, 0x01,
  0xec, 0xf3, 0x3c, 0xb5, 0xdc, 0x29, 0x2b, 0x0d, 0xfc, 0x1f, 0xc3, 0x26,
  0x01, 0xcc, 0x60, 0xd2, 0xf0, 0xff, 0x04, 0xda, 0x16, 0xe0, 0x45, 0x31,
  0x70, 0x93, 0xb1, 0x0a, 0x88, 0x6a, 0x73, 0xbd, 0x7f, 0x24, 0x65, 0xe1,
  0xf2, 0x08, 0xf6, 0xfb, 0xc5, 0x99, 0x30, 0xde, 0xe5, 0x11, 0xab, 0x0f,
  0x22, 0x16, 0x0f, 0xf1, 0xf0, 0x04, 0xc0, 0x41, 0xf1, 0x31, 0xef, 0xdb,
  0x04, 0xec, 0xbe, 0xd7, 0xe6, 0x1c, 0xe7, 0x20, 0x1c, 0xe8, 0xf1, 0xa7,
  0xdb, 0x5d, 0xb6, 0x06, 0x38, 0xd4, 0x48, 0xfc, 0xd6, 0x10, 0xca, 0x0f,
  0xf5, 0xe3, 0x07, 0xe0, 0xf9, 0x0d, 0x38, 0xe2, 0x37, 0x7a, 0xe4, 0x24,
  0x0a, 0xf3, 0x02, 0x0d, 0x08, 0xd7, 0x1e, 0xe6, 0x19, 0xbd, 0x2f, 0x18,
  0x09, 0x4b, 0xf3, 0x59, 0x1b, 0xe8, 0x22, 0x01, 0x81, 0x41, 0xe7, 0x21,
  0xbe, 0xc8, 0xcc, 0x7f, 0x7f, 0x15, 0x2f, 0x1c, 0xd8, 0xd7, 0xec, 0x55,
  0x57, 0x1c, 0x55, 0xf3, 0x1f, 0x23, 0xc5, 0x2d, 0x05, 0xba, 0x74, 0x34,
  0xe2, 0xec, 0x0c, 0x24, 0x1a, 0x17, 0x4b, 0xc1, 0xd8, 0x17, 0x65, 0x9b,
  0x7d, 0x0e, 0x23, 0x9a, 0x47, 0x8e, 0x3c, 0x97, 0x82, 0x97, 0x43, 0x0a,
  0x40, 0x12, 0x1d, 0x96, 0x08, 0x1b, 0x97, 0x96, 0xe6, 0x96, 0xc6, 0x9b,
  0x3a, 0x0e, 0x90, 0x16, 0x04, 0x97, 0xeb, 0x16, 0x0a, 0x1b, 0x46, 0x0f,
  0x55, 0x9a, 0x92, 0x9a, 0xef, 0x1a, 0x00, 0x1b, 0xf5, 0x1a, 0x99, 0x1e,
  0x1b, 0x96, 0x91, 0x13, 0x03, 0x1a, 0xe0, 0x1a, 0x59, 0x16, 0x26, 0x1e,
  0x72, 0x97, 0x89, 0x92, 0x55, 0x17, 0x1e, 0x1a, 0xb5, 0x4b, 0x7f, 0x4b,
  0x08, 0x46, 0xda, 0x4a, 0x1f, 0x46, 0xbf, 0x4a, 0x06, 0x4b, 0xaa, 0x4a,
  0xc6, 0x4a, 0x0c, 0x4b, 0x57, 0x4a, 0xc9, 0x4a, 0xec, 0xd7, 0x92, 0x06,
  0xfa, 0xe8, 0x01, 0x28, 0x7f, 0x24, 0x20, 0xe0, 0xde, 0xf0, 0x9b, 0xc0,
  0xe2, 0x1e, 0xbe, 0xbc, 0xaf, 0xef, 0xf2, 0xb6, 0x1b, 0x69, 0x05, 0x4d,
  0xa7, 0x00, 0x22, 0x50, 0x01, 0x2d, 0x23, 0x48, 0x7f, 0x3a, 0x28, 0x1a,
  0x29, 0xf2, 0x32, 0x3b, 0xf1, 0x3b, 0xbd, 0x49, 0xd5, 0xf4, 0xe9, 0x20,
  0xa1, 0x36, 0x18, 0xb1, 0x96, 0x48, 0x50, 0x2e, 0x49, 0x7f, 0x69, 0xd5,
  0xce, 0xc1, 0xec, 0xe3, 0x18, 0xc0, 0x36, 0x17, 0x5b, 0xd3, 0x0c, 0xf7,
  0x02, 0x7f, 0x62, 0x2e, 0xd7, 0x0e, 0x0e, 0x2c, 0x13, 0xa9, 0x63, 0xe7,
  0x31, 0x0f, 0xd3, 0xbf, 0xfb, 0xbb, 0x0b, 0xb2, 0xf3, 0x1d, 0xb9, 0x14,
  0xd1, 0xe1, 0xe4, 0x03, 0xf0, 0x0a, 0xf7, 0xea, 0x8a, 0x00, 0x3e, 0x03,
  0xde, 0xe5, 0x13, 0x07, 0xeb, 0x26, 0xd1, 0x1c, 0x20, 0x0d, 0x2f, 0xe4,
  0x02, 0x47, 0x52, 0xea, 0x03, 0x29, 0x1f, 0xd9, 0xca, 0xc3, 0x3d, 0x2d,
  0xf4, 0x35, 0x29, 0xd5, 0x1a, 0x3a, 0xb2, 0xeb, 0xdb, 0xec, 0x23, 0xd0,
  0x0b, 0xf6, 0x40, 0x40, 0x02, 0xf1, 0x2f, 0xf0, 0x50, 0xcd, 0xef, 0xe5,
  0x09, 0xd7, 0x1a, 0xfe, 0x30, 0x04, 0xf7, 0xeb, 0xfc, 0x0a, 0x1c, 0x1d,
  0xdd, 0x30, 0x0d, 0xdc, 0x15, 0xc5, 0xd7, 0x1f, 0x03, 0xa3, 0xe5, 0xc4,
  0x2f, 0x0e, 0xeb, 0xf4, 0xc9, 0x51, 0x02, 0x6d, 0x0d, 0xf1, 0x0d, 0x4b,
  0xfc, 0xc9, 0x21, 0xdc, 0xf1, 0xdd, 0x17, 0x06, 0x9c, 0x2f, 0xf3, 0xfd,
  0xe7, 0xf7, 0x07, 0x7f, 0x29, 0xe5, 0x81, 0xfc, 0xd1, 0x09, 0xf5, 0x98,
  0xc8, 0x07, 0xd1, 0x2a, 0xd4, 0x69, 0xf8, 0xf0, 0x82, 0xbb, 0x22, 0xba,
  0x11, 0xde, 0xcd, 0xe1, 0xdc, 0xbd, 0x02, 0xc4, 0xea, 0x0f, 0xe1, 0x36,
  0x43, 0xd4, 0x31, 0xed, 0x04, 0x07, 0xcb, 0xb2, 0x91, 0x08, 0x99, 0x1c,
  0x7f, 0xe3, 0x29, 0x03, 0xbb, 0xe8, 0x42, 0xfe, 0x39, 0x1e, 0xd6, 0x4a,
  0xfb, 0x40, 0x0c, 0xc5, 0xc7, 0x19, 0xf9, 0x24, 0xa2, 0x12, 0xa8, 0x4a,
  0x2d, 0x35, 0xda, 0x81, 0xdc, 0x96, 0x25, 0x75, 0xe1, 0x4a, 0x4c, 0xc9,
  0xed, 0xae, 0x67, 0x35, 0xc8, 0x65, 0x84, 0x51, 0x3a, 0x3f, 0xf0, 0x37,
  0x94, 0x04, 0x20, 0xf6, 0xa9, 0xd6, 0xea, 0x92, 0x13, 0xd3, 0x31, 0x1e,
  0x1e, 0x46, 0x5e, 0x49, 0xac, 0xd3, 0x34, 0xe6, 0xcb, 0x35, 0xfa, 0xab,
  0x7f, 0x67, 0xd6, 0x2a, 0x08, 0x36, 0xc1, 0x0a, 0xaf, 0xfe, 0x19, 0xe7,
  0xc3, 0xff, 0x7f, 0xd9, 0x3e, 0xf3, 0xff, 0x34, 0xd7, 0xc1, 0x50, 0xde,
  0xc6, 0xb5, 0x33, 0x01, 0x01, 0x0f, 0xe1, 0xff, 0xa3, 0x2b, 0x94, 0x60,
  0xfa, 0x04, 0x4b, 0xd4, 0xc6, 0x14, 0x47, 0x1b, 0x64, 0x3d, 0x04, 0x29,
  0xe5, 0xde, 0xb1, 0x1f, 0x34, 0x9b, 0x9d, 0x16, 0x47, 0x0c, 0x29, 0xbd,
  0xea, 0x19, 0x62, 0xfb, 0x61, 0x93, 0x49, 0xba, 0x7f, 0x2d, 0xd1, 0x37,
  0x7f, 0x49, 0xf3, 0x2f, 0x54, 0x7f, 0x55, 0x31, 0xab, 0x50, 0xa2, 0xb8,
  0x72, 0x40, 0x36, 0x31, 0x05, 0x27, 0x46, 0x49, 0x0a, 0xe8, 0xe2, 0x34,
  0xfe, 0xb1, 0x49, 0x7d, 0x15, 0x9d, 0xbd, 0xdb, 0x85, 0x8b, 0xac, 0x8f,
  0x26, 0x8b, 0x63, 0x92, 0xcd, 0x8f, 0xb5, 0x06, 0x76, 0x92, 0xb4, 0x0b,
  0x3d, 0x0f, 0xbe, 0x8e, 0x05, 0x8a, 0x05, 0x93, 0x12, 0x96, 0x32, 0x8b,
  0xab, 0x8b, 0x5e, 0x8e, 0xca, 0x0e, 0x32, 0x8e, 0x3d, 0x0f, 0x54, 0x82,
  0x25, 0x93, 0x5e, 0x8a, 0x7e, 0x07, 0x9f, 0x92, 0xdc, 0x92, 0x5b, 0x96,
  0xa3, 0x81, 0xfb, 0x8e, 0x2d, 0x96, 0xfc, 0x92, 0xff, 0x8b, 0xa4, 0x93,
  0x05, 0x96, 0x10, 0x8f, 0xd0, 0x0a, 0x9e, 0x92, 0xe8, 0x47, 0xe4, 0x47,
  0x05, 0x42, 0x2f, 0x47, 0xdd, 0x47, 0xc1, 0x47, 0x49, 0x47, 0xf7, 0x46,
  0x44, 0x42, 0x64, 0x47, 0x5d, 0x47, 0x9c, 0x42, 0x43, 0x77, 0x12, 0xb1,
  0x41, 0xdf, 0xe2, 0x33, 0xef, 0x5c, 0x4b, 0x1f, 0x0b, 0x61, 0xf0, 0x9a,
  0xb0, 0x0a, 0xf0, 0x11, 0xfc, 0xc6, 0xd9, 0x1a, 0x2a, 0xf5, 0xa3, 0x69,
  0xf3, 0xf9, 0x57, 0xc2, 0x01, 0x2d, 0xe9, 0x3d, 0x58, 0x2d, 0x2e, 0xfe,
  0xcc, 0xc0, 0x16, 0x18, 0x13, 0x53, 0xf7, 0x15, 0xee, 0xcb, 0x84, 0x28,
  0xf8, 0x20, 0xc7, 0x7a, 0x7f, 0x6f, 0xed, 0xce, 0xd3, 0x30, 0xcc, 0xc1,
  0x02, 0x4c, 0xe9, 0x25, 0x41, 0xab, 0x81, 0xe5, 0x0b, 0x16, 0xd8, 0xba,
  0xde, 0xfe, 0xdd, 0x93, 0x06, 0xf8, 0xef, 0xe5, 0xdf, 0x4a, 0xbf, 0x81,
  0xe8, 0x3c, 0x01, 0xc1, 0xcf, 0x81, 0xf4, 0x29, 0xdf, 0xfa, 0xfd, 0xe5,
  0x3f, 0x4c, 0xb2, 0x23, 0xce, 0xff, 0x05, 0x1c, 0xcf, 0xcf, 0x33, 0xc6,
  0x24, 0xe4, 0x3a, 0x51, 0xe6, 0x56, 0xf1, 0x24, 0xd2, 0x0c, 0x2f, 0xc8,
  0xf9, 0x13, 0x2a, 0xe1, 0x0c, 0xf8, 0x29, 0xcf, 0xcf, 0xef, 0xe0, 0x08,
  0x41, 0x7f, 0xfa, 0x07, 0x51, 0x18, 0xde, 0x1d, 0xdc, 0xd9, 0x41, 0xbb,
  0x38, 0x23, 0xb3, 0x95, 0xcd, 0xf3, 0x3b, 0xdf, 0xe2, 0x14, 0xe8, 0x52,
  0xe0, 0xde, 0x36, 0x18, 0xa9, 0xed, 0x03, 0xb4, 0xd9, 0xf4, 0x27, 0x19,
  0x14, 0xef, 0x19, 0x47, 0xf3, 0xac, 0xf2, 0xe5, 0x21, 0xe1, 0x19, 0x24,
  0x01, 0xfc, 0xd4, 0x10, 0xcd, 0xbf, 0xf5, 0x2e, 0x2c, 0xd8, 0x43, 0x7f,
  0x2a, 0x1e, 0x20, 0xc6, 0xfe, 0xe9, 0xd8, 0xcd, 0xb8, 0x28, 0x0d, 0xdb,
  0x18, 0x4d, 0x8a, 0x28, 0xa9, 0x1a, 0xc6, 0x3a, 0xd6, 0xe9, 0x18, 0xc2,
  0x00, 0x4e, 0xd8, 0x3a, 0x0d, 0xdd, 0x31, 0x27, 0xbd, 0x69, 0xe5, 0xc3,
  0x27, 0x0d, 0xbd, 0xef, 0xd2, 0x03, 0xf7, 0xb4, 0x22, 0xcb, 0x39, 0xf0,
  0xe4, 0x3b, 0x4e, 0x3f, 0xe3, 0xd7, 0xbb, 0x35, 0x38, 0xe8, 0x36, 0x53,
  0xc4, 0xb7, 0xcf, 0xc9, 0xe7, 0x02, 0x00, 0xfa, 0xd8, 0x95, 0x0c, 0x1b,
  0x0c, 0xd4, 0xfd, 0x81, 0x81, 0xe9, 0x24, 0xcd, 0x1d, 0xa6, 0xff, 0xb6,
  0x0e, 0x95, 0x3d, 0x3a, 0x0c, 0xa3, 0x6b, 0x8a, 0x1e, 0xd5, 0x81, 0xa7,
  0xb7, 0x2e, 0x9d, 0x0b, 0x0c, 0xd8, 0x0b, 0x28, 0xf0, 0xbb, 0x12, 0xf8,
  0xf6, 0xe5, 0x06, 0x3d, 0x2a, 0x78, 0x43, 0x35, 0x67, 0xd5, 0xab, 0xf9,
  0xed, 0x05, 0xdf, 0xe2, 0xdd, 0x18, 0x52, 0xcc, 0xb6, 0x56, 0xeb, 0x32,
  0xe4, 0x0b, 0xcc, 0xe2, 0x82, 0x13, 0x1e, 0xe2, 0x29, 0xc2, 0xaf, 0x16,
  0xb8, 0xf5, 0xe7, 0xd6, 0xe5, 0x18, 0xf1, 0x60, 0xe3, 0x15, 0xea, 0xff,
  0x04, 0xf1, 0xfd, 0xfe, 0x8d, 0xd4, 0x7f, 0xb2, 0x05, 0x08, 0x30, 0x43,
  0x14, 0x22, 0xe2, 0x04, 0xdf, 0x23, 0xb7, 0xb4, 0xde, 0x0f, 0xd3, 0xf3,
  0x0f, 0xc0, 0x7f, 0x8e, 0xaf, 0x16, 0x12, 0x17, 0x89, 0xf4, 0x3a, 0x12,
  0x1b, 0xaa, 0x03, 0x13, 0x01, 0x23, 0x90, 0x75, 0x02, 0x15, 0xb1, 0x25,
  0x28, 0x41, 0xd7, 0xe2, 0x9c, 0x4d, 0x38, 0x04, 0xa3, 0x04, 0x1e, 0xf8,
  0x4c, 0xca, 0x28, 0x23, 0xd0, 0x28, 0xe4, 0x13, 0x96, 0xf5, 0xfb, 0xcb,
  0xd5, 0x08, 0xbc, 0xb4, 0x81, 0x0f, 0x90, 0x17, 0xfb, 0xe7, 0xe2, 0x0e,
  0xfe, 0xfc, 0xe9, 0x04, 0x08, 0x18, 0xf7, 0xfc, 0x0c, 0x0c, 0x01, 0xfe,
  0xf7, 0x02, 0xf9, 0xfd, 0x01, 0xfd, 0x17, 0xfc, 0xf6, 0xf4, 0xf8, 0x03,
  0x07, 0x05, 0x04, 0xfa, 0x0b, 0x01, 0xf6, 0x00, 0xfa, 0xef, 0xfa, 0x0c,
  0x0a, 0x0e, 0x12, 0xf7, 0xf8, 0xf2, 0xdc, 0x14, 0x05, 0xf7, 0xde, 0x0f,
  0xf4, 0xf3, 0xf1, 0x09, 0x0a, 0x12, 0x21, 0xf1, 0x00, 0xfe, 0xf7, 0x0b,
  0x17, 0xff, 0xf8, 0xf2, 0x07, 0xf6, 0x02, 0xf7, 0x1a, 0xf3, 0x01, 0x05,
  0xfc, 0xff, 0x02, 0xfe, 0xec, 0x05, 0x01, 0xfe, 0xfa, 0x0a, 0xfc, 0xfe,
  0x18, 0xf8, 0xf8, 0x13, 0xfa, 0xff, 0x01, 0x06, 0xfd, 0x00, 0xfe, 0xef,
  0x1b, 0x05, 0xfb, 0x05, 0xe5, 0x00, 0x02, 0x04, 0x17, 0xf2, 0x00, 0x07,
  0x12, 0xfb, 0x04, 0xf5, 0xfd, 0xfe, 0xfc, 0xfe, 0xd7, 0x02, 0x00, 0xfb,
  0x0a, 0x00, 0xfc, 0x00, 0xfe, 0xed, 0xf6, 0xf7, 0x00, 0x02, 0x02, 0x0b,
  0x02, 0x11, 0x03, 0x0a, 0x00, 0xef, 0xf5, 0xf9, 0x09, 0xfa, 0xfd, 0xfc,
  0x02, 0xf5, 0xfd, 0xf9, 0xf8, 0x0f, 0x00, 0xee, 0x01, 0x04, 0x03, 0x00,
  0x0b, 0xeb, 0xfb, 0x13, 0xff, 0x01, 0xf7, 0xf8, 0x01, 0x06, 0xfd, 0xfa,
  0xfb, 0x0a, 0xf6, 0x01, 0xfc, 0xf4, 0xf3, 0x0f, 0xf5, 0x10, 0x01, 0x04,
  0x01, 0xfc, 0x09, 0x12, 0x01, 0xe9, 0xf5, 0xf4, 0xff, 0xf9, 0xfa, 0x03,
  0xfa, 0xf3, 0xfe, 0x06, 0x06, 0x13, 0xfd, 0xf4, 0x03, 0x08, 0x02, 0xf2,
  0xfc, 0x07, 0xfd, 0xfd, 0x07, 0x0f, 0x05, 0xfd, 0x03, 0xef, 0xf3, 0x01,
  0x03, 0x02, 0x09, 0xf4, 0x01, 0x0a, 0x09, 0xff, 0x06, 0xf4, 0xf4, 0x02,
  0x02, 0x0b, 0x0f, 0xf3, 0xf3, 0xea, 0xf6, 0x13, 0x01, 0xfb, 0x02, 0x06,
  0xf9, 0xea, 0xf5, 0x11, 0xfd, 0x0f, 0x0a, 0xfa, 0xff, 0x07, 0xfd, 0xfc,
  0xf0, 0xf8, 0x07, 0x0e, 0xfe, 0xfd, 0xfd, 0xfe, 0x01, 0x02, 0x08, 0xf5,
  0xf5, 0x04, 0x16, 0xfd, 0x00, 0xf9, 0x01, 0x0a, 0x02, 0x0c, 0x03, 0x0a,
  0x09, 0xee, 0xed, 0x01, 0x05, 0x04, 0xfe, 0xfd, 0xf0, 0x09, 0x15, 0x05,
  0x00, 0xf7, 0xf5, 0x06, 0x01, 0x0a, 0x04, 0xf7, 0x02, 0xee, 0xf4, 0xff,
  0xec, 0xfe, 0x09, 0x14, 0x05, 0xf7, 0xe3, 0x04, 0x01, 0x0f, 0x06, 0xfd,
  0xf4, 0xfc, 0x0b, 0x05, 0x24, 0xf7, 0x03, 0x02, 0x02, 0x0b, 0xf6, 0x06,
  0xf0, 0x11, 0x08, 0x02, 0xef, 0xf8, 0x05, 0xfb, 0xfa, 0xf9, 0xf8, 0xf9,
  0x06, 0xf2, 0xfe, 0xf8, 0x0d, 0x09, 0xfa, 0xfa, 0xef, 0x02, 0xf8, 0x07,
  0x01, 0xf5, 0x01, 0x08, 0x13, 0xfd, 0xf8, 0xff, 0xf8, 0x00, 0xfd, 0xfa,
  0xfd, 0x0e, 0xf5, 0x01, 0x25, 0xff, 0xfa, 0x04, 0x0f, 0x0d, 0xef, 0x08,
  0xed, 0xf6, 0x03, 0x08, 0x0b, 0xf2, 0x06, 0xf4, 0x0c, 0xf7, 0xf6, 0xf8,
  0xf2, 0x01, 0x14, 0x04, 0xfb, 0x1a, 0x08, 0xf7, 0xee, 0x04, 0x0e, 0xf2,
  0x05, 0xf8, 0xef, 0x09, 0x07, 0xf3, 0x00, 0x01, 0x1e, 0x02, 0xe3, 0xfd,
  0xfa, 0xf9, 0xfc, 0x09, 0xe9, 0xfb, 0x17, 0xfc, 0x1a, 0xf8, 0xe6, 0x04,
  0xf4, 0xf8, 0x0a, 0x08, 0x02, 0x03, 0xf5, 0x05, 0xfa, 0xf5, 0x11, 0xf5,
  0x02, 0xf3, 0xf1, 0x08, 0xf4, 0xfc, 0x16, 0x0a, 0x07, 0xfb, 0xf3, 0xf6,
  0x08, 0x03, 0xfb, 0xea, 0xfa, 0x0e, 0xfe, 0x07, 0x1c, 0x05, 0x02, 0x07,
  0x08, 0xfd, 0x01, 0xf4, 0xf0, 0x02, 0x11, 0x06, 0xfc, 0xf3, 0x01, 0xfd,
  0x0d, 0xf8, 0xff, 0xfe, 0xfd, 0xfc, 0x08, 0x03, 0xf1, 0x07, 0x02, 0xf1,
  0x09, 0xfa, 0xfc, 0xf4, 0xf5, 0xfb, 0x03, 0x08, 0xfd, 0x0d, 0xff, 0x00,
  0x00, 0x07, 0xf5, 0xee, 0xed, 0x06, 0xf9, 0x08, 0xea, 0xfb, 0x05, 0x10,
  0x14, 0xf8, 0x00, 0xe4, 0x28, 0x0b, 0xe7, 0xf9, 0xfe, 0x09, 0x00, 0xf0,
  0xf6, 0xff, 0x0e, 0xff, 0x01, 0xfd, 0x0e, 0xfc, 0xfc, 0x05, 0xfc, 0xf6,
  0x07, 0xfe, 0x07, 0x09, 0x10, 0xf6, 0xe6, 0xfa, 0xea, 0xfa, 0x0c, 0x0b,
  0xff, 0x08, 0x04, 0xf8, 0x1b, 0xfa, 0xe5, 0x06, 0xed, 0xf4, 0x0e, 0x04,
  0x02, 0x01, 0xe4, 0xf5, 0x1d, 0x12, 0xea, 0xf7, 0x08, 0x01, 0xe5, 0xf7,
  0xf4, 0x03, 0x23, 0x16, 0x0c, 0xfa, 0xf9, 0x08, 0x36, 0xf6, 0xfc, 0xf4,
  0xf4, 0x00, 0x0d, 0xff, 0xfe, 0x04, 0xfa, 0xfe, 0xfb, 0xfc, 0x06, 0xfe,
  0x05, 0x04, 0x04, 0xfc, 0x06, 0x07, 0x06, 0x02, 0x19, 0xf8, 0xe7, 0xfd,
  0xfa, 0x09, 0xf9, 0xff, 0x01, 0x04, 0x17, 0xfc, 0x30, 0xf8, 0xf1, 0xf9,
  0xf0, 0xfd, 0x0d, 0x05, 0xfe, 0xf7, 0xf8, 0x01, 0x1b, 0xfc, 0x12, 0xf9,
  0x02, 0xf9, 0xfe, 0x01, 0xe7, 0x0a, 0x13, 0x0d, 0x22, 0xfd, 0xf9, 0xf1,
  0x0f, 0x07, 0xed, 0xf7, 0x03, 0xf5, 0x12, 0x01, 0x12, 0xf3, 0x0c, 0xfd,
  0x0f, 0xfc, 0x07, 0xf1, 0xfc, 0x02, 0x01, 0x0d, 0x02, 0x03, 0xfe, 0x04,
  0xf9, 0x06, 0xef, 0xfa, 0xf3, 0xf5, 0xfb, 0xfa, 0x0f, 0xfc, 0x03, 0xff,
  0x01, 0x08, 0xe1, 0xfb, 0x07, 0xfe, 0x07, 0x05, 0xf7, 0x01, 0x02, 0xff,
  0x19, 0x05, 0xf3, 0xf6, 0xe9, 0x00, 0xf6, 0x0b, 0xfa, 0xf9, 0x13, 0x10,
  0x0b, 0x05, 0xe7, 0xee, 0x0e, 0xfc, 0xd8, 0x11, 0x09, 0x02, 0xf9, 0xf5,
  0xf8, 0x18, 0x15, 0x08, 0xf4, 0x0e, 0x0c, 0x0a, 0xff, 0xf6, 0x04, 0xfa,
  0x02, 0xee, 0x07, 0x0b, 0x03, 0xf8, 0xe8, 0xf2, 0xf9, 0x02, 0x0e, 0xfa,
  0xfd, 0x00, 0xfa, 0x1a, 0x0e, 0xed, 0xe2, 0x08, 0xed, 0xfc, 0x1c, 0x0a,
  0x0c, 0xf8, 0xe6, 0xf3, 0x23, 0xfc, 0xd9, 0x02, 0x13, 0xef, 0xe1, 0xf4,
  0xfc, 0xfd, 0x22, 0xff, 0xf9, 0x00, 0xf2, 0x10, 0x39, 0x01, 0x08, 0x01,
  0xfd, 0x00, 0x17, 0xec, 0x0d, 0x16, 0xf9, 0xf0, 0x18, 0x04, 0xfa, 0xfc,
  0xfb, 0xfb, 0xf8, 0x08, 0xf1, 0xfc, 0xf8, 0x13, 0x1f, 0x08, 0xf0, 0x02,
  0xdc, 0x00, 0xfd, 0xf4, 0xfb, 0xff, 0x13, 0xff, 0x29, 0x02, 0xf9, 0x09,
  0xdb, 0xff, 0xf9, 0xfb, 0x17, 0xff, 0x0e, 0xf5, 0x2d, 0x00, 0x21, 0xf9,
  0xf9, 0xf5, 0x05, 0x02, 0xd6, 0xf0, 0xfc, 0x04, 0x25, 0x0c, 0xfb, 0x06,
  0x05, 0x10, 0xf3, 0xf3, 0xf0, 0xfc, 0x0f, 0xfa, 0x1f, 0xf8, 0x18, 0xfe,
  0x04, 0x01, 0x0a, 0xfc, 0xf9, 0x01, 0xfc, 0xfa, 0xf8, 0xfe, 0xf3, 0xf9,
  0x0f, 0x01, 0xf6, 0xfa, 0xfd, 0xf8, 0x03, 0x00, 0xed, 0x00, 0xfd, 0xfb,
  0x06, 0x07, 0xe9, 0xfb, 0x00, 0xf9, 0x03, 0xfe, 0xfe, 0x07, 0x0d, 0xfc,
  0xf7, 0x19, 0xfc, 0xf0, 0xf3, 0x04, 0xf3, 0xfb, 0xf3, 0xf1, 0x00, 0x0a,
  0x0a, 0x0a, 0xf2, 0xff, 0x38, 0xfe, 0xf3, 0x21, 0xfe, 0x04, 0xf4, 0x10,
  0xfd, 0x03, 0xff, 0x04, 0xe6, 0xf9, 0x07, 0xfc, 0x03, 0x0a, 0x09, 0xfb,
  0xfb, 0x02, 0x09, 0x00, 0x2a, 0xf6, 0xf0, 0xfe, 0xed, 0xf8, 0x03, 0xf0,
  0xe0, 0x04, 0x04, 0x1b, 0x39, 0xf8, 0xf3, 0x08, 0xdc, 0xfb, 0x08, 0xf2,
  0x2a, 0xfa, 0xe0, 0x07, 0x2d, 0x04, 0xf6, 0x23, 0x21, 0xfe, 0xec, 0x0d,
  0xe4, 0x05, 0x15, 0xfb, 0x0d, 0xfa, 0xfb, 0xfb, 0x01, 0x0a, 0xf8, 0x02,
  0xfe, 0xfd, 0x19, 0x09, 0x0f, 0x0a, 0xfd, 0x01, 0xf8, 0x05, 0x0e, 0xfb,
  0xf4, 0xf6, 0xf2, 0xfa, 0xfe, 0xf8, 0xf9, 0xf5, 0x2a, 0x0a, 0xe3, 0x01,
  0xfd, 0x06, 0x04, 0xf3, 0xdf, 0xfd, 0x18, 0x03, 0x1b, 0x0c, 0xf1, 0x00,
  0xf3, 0x01, 0x05, 0xf4, 0x1e, 0x02, 0x08, 0x0e, 0xfc, 0x02, 0x1b, 0x02,
  0x0b, 0x02, 0x04, 0x0a, 0xe6, 0xf3, 0x10, 0xf8, 0xff, 0x07, 0xf2, 0xff,
  0xee, 0x11, 0xf3, 0x08, 0xfa, 0xe9, 0x19, 0xee, 0x1a, 0xfa, 0x01, 0xe0,
  0x0b, 0xf6, 0x08, 0xeb, 0xf1, 0x01, 0x07, 0x07, 0xef, 0xfe, 0xff, 0x0c,
  0xfe, 0x1e, 0xe4, 0x09, 0xfd, 0xf8, 0x00, 0xfa, 0xfc, 0xe7, 0x16, 0xf7,
  0xf2, 0x17, 0xde, 0x13, 0x03, 0xf0, 0x08, 0xf1, 0xf6, 0x0a, 0x04, 0xf4,
  0xf1, 0x01, 0x11, 0xf9, 0xf1, 0x06, 0xf6, 0x13, 0x12, 0xe4, 0x13, 0x01,
  0xf8, 0x10, 0xef, 0x03, 0x2a, 0x16, 0xf0, 0x12, 0xf4, 0x01, 0xf4, 0x00,
  0xf5, 0x03, 0x17, 0xf4, 0xec, 0x07, 0x15, 0xf6, 0x0c, 0x13, 0xf9, 0x0e,
  0xfc, 0x04, 0xfa, 0x0e, 0x24, 0xf2, 0xf5, 0x02, 0xfb, 0xef, 0x11, 0xf1,
  0xdb, 0x18, 0x07, 0x0a, 0x39, 0x02, 0xf2, 0x17, 0xe5, 0xf4, 0x08, 0xf8,
  0x10, 0xfc, 0xe2, 0xfc, 0x02, 0x1d, 0xf9, 0x0e, 0x13, 0xff, 0xde, 0x08,
  0xf0, 0xfd, 0x0b, 0x0e, 0x10, 0x0b, 0x0d, 0x00, 0x19, 0x0a, 0xe7, 0x00,
  0x07, 0x03, 0x1c, 0xf1, 0xff, 0x19, 0x09, 0xf7, 0xe6, 0x08, 0x0a, 0xfa,
  0x08, 0xef, 0xfb, 0x09, 0xea, 0xef, 0xfa, 0x0e, 0x31, 0x0f, 0xea, 0xff,
  0xed, 0xf2, 0x0b, 0xf8, 0xde, 0xfd, 0x0c, 0xfe, 0x27, 0x06, 0xe0, 0x06,
  0xd6, 0xf6, 0x12, 0xfc, 0x2a, 0x11, 0x06, 0xf1, 0x0a, 0x1a, 0x0c, 0xfa,
  0x25, 0x00, 0xf8, 0xfd, 0xd8, 0xe3, 0x13, 0x07, 0x00, 0x09, 0xef, 0x05,
  0x04, 0x0f, 0xef, 0xfd, 0xe7, 0xfe, 0x1b, 0xf1, 0x1d, 0xf5, 0x11, 0x04,
  0x1d, 0xe7, 0x0b, 0x03, 0x03, 0x13, 0xff, 0x04, 0x0b, 0x01, 0xec, 0x0e,
  0xf5, 0x0f, 0xf5, 0x00, 0xfe, 0xfe, 0x0a, 0xfa, 0x0c, 0xf2, 0x07, 0xfc,
  0x00, 0x12, 0xe5, 0x04, 0x07, 0xef, 0x03, 0xfe, 0xe6, 0x11, 0x13, 0xf5,
  0x04, 0x09, 0x0c, 0xf6, 0xdc, 0x18, 0x01, 0xf4, 0x07, 0xf4, 0x03, 0x09,
  0x18, 0x02, 0xf1, 0x09, 0x33, 0xeb, 0xf9, 0xff, 0xf0, 0x0c, 0xfd, 0xf7,
  0xef, 0x1b, 0x06, 0xf5, 0xf0, 0x1b, 0x08, 0x01, 0x02, 0x05, 0x01, 0x0b,
  0x0c, 0xf3, 0x09, 0x19, 0x11, 0xf0, 0xed, 0xec, 0xf1, 0x0c, 0x0d, 0xf7,
  0xfb, 0x0f, 0x0e, 0x19, 0x2c, 0xe8, 0xf9, 0x08, 0xe4, 0x0a, 0x09, 0x0d,
  0xfa, 0x06, 0xee, 0xf1, 0x10, 0x0d, 0x0f, 0x01, 0x06, 0xf2, 0xee, 0xf8,
  0xf6, 0x04, 0x08, 0x20, 0x16, 0xf6, 0x02, 0x00, 0x15, 0xf8, 0xfb, 0x0b,
  0x16, 0x0d, 0x16, 0xf2, 0xf9, 0x12, 0x03, 0x04, 0xe7, 0x06, 0x05, 0x00,
  0x0e, 0xf7, 0x04, 0xfb, 0xf7, 0xf1, 0x03, 0x02, 0x23, 0xfd, 0xf5, 0x03,
  0xe8, 0x05, 0xf8, 0xf6, 0xe2, 0x02, 0x02, 0x02, 0x16, 0xf7, 0xf2, 0x0c,
  0xeb, 0x07, 0xff, 0xf6, 0x2f, 0x0b, 0x06, 0xf5, 0x13, 0x05, 0x15, 0x07,
  0x29, 0x02, 0x03, 0xf7, 0xdf, 0xfb, 0x04, 0xfa, 0x04, 0xfa, 0xf9, 0x0e,
  0x08, 0xfe, 0xf8, 0xfa, 0xf5, 0xfb, 0x1c, 0xeb, 0x3c, 0xfa, 0xfc, 0x0b,
  0x4c, 0xfc, 0xf7, 0xec, 0xd8, 0xfa, 0x06, 0x05, 0x02, 0x03, 0x05, 0x05,
  0xcb, 0xfc, 0xf0, 0x1d, 0x05, 0x01, 0x00, 0x07, 0x40, 0xfd, 0x0c, 0xea,
  0xdc, 0xfb, 0xf1, 0x0f, 0x14, 0x01, 0x02, 0xfe, 0xd5, 0xfb, 0x10, 0x01,
  0x23, 0x00, 0x23, 0xe6, 0xb9, 0x03, 0x09, 0x0b, 0x12, 0x08, 0x09, 0xfb,
  0x1b, 0x01, 0xf4, 0x00, 0x28, 0xfc, 0xfe, 0x0d, 0x22, 0x00, 0xfa, 0x04,
  0xfa, 0x11, 0x02, 0xfe, 0x01, 0x1a, 0xfe, 0xfe, 0xfc, 0xfa, 0x0a, 0xfd,
  0xf3, 0x00, 0x00, 0x01, 0x03, 0xef, 0x03, 0xf6, 0xfd, 0x09, 0xfd, 0xf7,
  0x11, 0x11, 0x03, 0x19, 0x1a, 0xf5, 0x02, 0x05, 0xe7, 0x0d, 0xfc, 0x04,
  0x1d, 0xf7, 0x03, 0xfc, 0x41, 0x05, 0x00, 0x0a, 0x15, 0xea, 0xff, 0x09,
  0xef, 0x07, 0xfb, 0x09, 0xf8, 0x08, 0x01, 0xf4, 0x07, 0xf7, 0x03, 0x0d,
  0x13, 0x05, 0x1a, 0xff, 0x01, 0x0d, 0x03, 0xfe, 0xfb, 0x05, 0xfa, 0x16,
  0x0d, 0x03, 0x03, 0xf9, 0xff, 0xfb, 0xf2, 0x06, 0x01, 0xf8, 0xfb, 0xe1,
  0xfb, 0xff, 0x03, 0xfe, 0xf8, 0x0d, 0x04, 0x29, 0x09, 0xf6, 0xfd, 0xf6,
  0xfb, 0x10, 0xf7, 0x04, 0x19, 0x02, 0x14, 0xe9, 0x13, 0xfe, 0x13, 0x32,
  0x14, 0xfa, 0x06, 0xea, 0xfb, 0x04, 0xfc, 0x07, 0xf1, 0xff, 0xfa, 0x13,
  0x02, 0x03, 0xf5, 0xeb, 0x09, 0x00, 0x0c, 0xf9, 0x1e, 0x01, 0x06, 0x19,
  0x1d, 0x10, 0x00, 0x00, 0xee, 0xf7, 0x01, 0x0a, 0x02, 0xff, 0x03, 0xf8,
  0xea, 0xfe, 0xfa, 0x07, 0x03, 0x00, 0x00, 0x0b, 0x1d, 0x0b, 0x07, 0xee,
  0xf5, 0xfe, 0xf2, 0xf8, 0x05, 0x01, 0x07, 0x09, 0x05, 0xff, 0x0e, 0x0d,
  0x12, 0xff, 0x14, 0xeb, 0xed, 0xfd, 0xfe, 0xfe, 0x01, 0x02, 0x05, 0x07,
  0x0b, 0x02, 0xf3, 0xf8, 0x18, 0x11, 0xfd, 0x0b, 0x23, 0xf5, 0xfd, 0xfa,
  0xee, 0x12, 0x0e, 0x14, 0xf1, 0x09, 0xfc, 0x15, 0x0e, 0x06, 0x04, 0x01,
  0x05, 0x09, 0xfe, 0xfc, 0x03, 0x0c, 0x0d, 0x04, 0xfd, 0x02, 0xfe, 0x00,
  0x09, 0x04, 0xf5, 0x10, 0x13, 0x16, 0x0c, 0x02, 0xe0, 0xfd, 0xf9, 0x08,
  0x20, 0xfd, 0x05, 0xf4, 0x28, 0x05, 0xf4, 0x03, 0x1b, 0xf2, 0x06, 0xed,
  0x05, 0xf1, 0xf2, 0xf9, 0xe6, 0x16, 0x02, 0x0c, 0x0b, 0xfc, 0x07, 0x0d,
  0x0e, 0x0c, 0xee, 0xfe, 0x10, 0x06, 0x01, 0x0f, 0xe6, 0x06, 0xfb, 0x0c,
  0x0a, 0x04, 0x0c, 0xf8, 0xf1, 0x04, 0x02, 0xfb, 0x26, 0xe5, 0x1a, 0xf9,
  0xf9, 0xfe, 0xfb, 0xfb, 0xe2, 0x16, 0xfb, 0x0b, 0x25, 0xea, 0x1c, 0x03,
  0xf1, 0x0a, 0xf8, 0xfe, 0x25, 0xfc, 0x0c, 0xf8, 0x0b, 0x05, 0xfe, 0x1b,
  0x18, 0xf7, 0x0b, 0xf2, 0xe8, 0x12, 0xf0, 0xf5, 0xef, 0xfb, 0x0f, 0x10,
  0x09, 0xeb, 0xf5, 0xf1, 0xf6, 0x12, 0x0b, 0xf5, 0x31, 0x07, 0x12, 0xfd,
  0x24, 0x18, 0xf2, 0xf4, 0xf0, 0xf3, 0x01, 0x0b, 0xf9, 0xfb, 0xf1, 0x0e,
  0x00, 0xd9, 0x0f, 0x01, 0x04, 0x0a, 0x07, 0x05, 0x0e, 0x1c, 0xe6, 0xf0,
  0x00, 0xdc, 0xfb, 0x02, 0xff, 0x1b, 0xfb, 0x05, 0xf6, 0xed, 0x22, 0xf5,
  0x10, 0x07, 0xf5, 0xec, 0xe3, 0xea, 0x13, 0x05, 0xf0, 0x1b, 0xfa, 0x10,
  0x15, 0xf1, 0xf1, 0xfb, 0x1b, 0x15, 0x00, 0x40, 0x00, 0xf8, 0xf4, 0xff,
  0xee, 0x0c, 0x0e, 0x16, 0xee, 0x0d, 0xf7, 0x21, 0x0a, 0xf8, 0xfa, 0xf7,
  0x09, 0xf7, 0xfb, 0xf3, 0x0e, 0x0d, 0x1d, 0x04, 0x02, 0x04, 0xfb, 0xe4,
  0x02, 0x08, 0xf0, 0x28, 0x33, 0x11, 0x18, 0x0a, 0x02, 0xfb, 0xf4, 0xed,
  0x13, 0x05, 0x04, 0xff, 0x11, 0x0a, 0xf1, 0x20, 0x14, 0xfa, 0x06, 0xf3,
  0xf5, 0xe0, 0xec, 0xd0, 0x01, 0x11, 0x05, 0x22, 0xef, 0xe0, 0x00, 0x07,
  0x09, 0x09, 0xe5, 0xfd, 0xf5, 0x0e, 0x0b, 0x0f, 0xd6, 0xfb, 0xf4, 0x0a,
  0x0f, 0xfb, 0x01, 0x00, 0x07, 0xfd, 0x01, 0x02, 0x1f, 0xf6, 0x18, 0xfd,
  0x11, 0x09, 0x07, 0x03, 0xe5, 0xf8, 0xee, 0x06, 0x1a, 0xec, 0x1e, 0x02,
  0x01, 0x0d, 0xfe, 0x04, 0x21, 0x03, 0xff, 0xf9, 0xf2, 0xe9, 0xf1, 0x03,
  0x27, 0x02, 0xff, 0xf2, 0xfb, 0x12, 0xf0, 0xf5, 0xdf, 0xe9, 0x02, 0x06,
  0x15, 0xd5, 0x05, 0xef, 0x0f, 0x11, 0xfe, 0x03, 0x11, 0x14, 0x0d, 0x24,
  0x10, 0x14, 0xf5, 0x18, 0xf6, 0xf3, 0xfe, 0xf7, 0xf0, 0xf6, 0xf0, 0xfb,
  0xf8, 0xe9, 0x27, 0xf4, 0xff, 0x0c, 0xfc, 0x08, 0x14, 0x02, 0xeb, 0xfe,
  0xfe, 0xd4, 0x14, 0xf2, 0xfb, 0x19, 0xf6, 0x0a, 0x02, 0xfa, 0x27, 0xf2,
  0x3e, 0xf2, 0xf5, 0xfa, 0xfa, 0xeb, 0x1c, 0xe5, 0xf3, 0x19, 0xdd, 0x0a,
  0x0e, 0xe9, 0xfa, 0x04, 0x2b, 0x00, 0x0d, 0x19, 0x2d, 0xfb, 0xee, 0xf8,
  0xea, 0x08, 0x06, 0x27, 0xec, 0xfb, 0x03, 0x1f, 0x07, 0x0e, 0xff, 0x04,
  0x03, 0xfe, 0x02, 0xfb, 0xf4, 0x14, 0x13, 0x04, 0xe3, 0x03, 0xf9, 0xfe,
  0x27, 0xf2, 0xf2, 0x17, 0x07, 0x19, 0x14, 0x06, 0xe9, 0x03, 0xf6, 0x06,
  0x21, 0x00, 0xff, 0xf5, 0x50, 0xf3, 0xfd, 0x06, 0x1f, 0x02, 0xf9, 0xe5,
  0x00, 0xf0, 0xef, 0xf2, 0xea, 0x02, 0x14, 0x15, 0x11, 0xdd, 0xf8, 0x09,
  0x01, 0xfb, 0xfd, 0xfe, 0xf4, 0xee, 0x00, 0x11, 0xf3, 0xf1, 0xe9, 0x0c,
  0x13, 0x04, 0x07, 0xfc, 0x03, 0x19, 0xfe, 0xfc, 0x09, 0xf7, 0x19, 0x04,
  0xf8, 0x12, 0x00, 0x01, 0x06, 0xef, 0xe2, 0x04, 0x1b, 0xf8, 0x0d, 0x03,
  0xf6, 0x14, 0xff, 0xfd, 0x03, 0xea, 0x0e, 0xff, 0x09, 0xe2, 0xec, 0x07,
  0x0e, 0x07, 0x15, 0xf6, 0xfc, 0x29, 0xfd, 0xed, 0x05, 0xe8, 0xf3, 0x0f,
  0x2e, 0x0b, 0x18, 0xed, 0xcc, 0x06, 0xe6, 0x1b, 0xfe, 0xfd, 0xed, 0x1c,
  0xff, 0x05, 0xe9, 0x09, 0x08, 0xfc, 0x06, 0xf9, 0x14, 0xfc, 0x08, 0xfb,
  0x2a, 0x02, 0x30, 0xf9, 0xe8, 0xf6, 0xf1, 0x02, 0xea, 0x00, 0xf1, 0x00,
  0x34, 0x04, 0x40, 0xe4, 0xe5, 0xf8, 0xe3, 0x0b, 0xef, 0x07, 0x1b, 0x0b,
  0xf0, 0x14, 0xf8, 0xfc, 0xf4, 0x03, 0x26, 0xfa, 0xdc, 0xf5, 0xdc, 0x08,
  0x41, 0x06, 0x16, 0xeb, 0x43, 0xe4, 0x0c, 0x11, 0x36, 0xfa, 0xea, 0xf0,
  0xeb, 0x03, 0x06, 0x44, 0xdb, 0x02, 0x09, 0x39, 0x05, 0x0a, 0x01, 0xde,
  0xec, 0x07, 0x05, 0x06, 0x1a, 0xf5, 0x0b, 0xf4, 0xeb, 0x09, 0xfe, 0x0b,
  0x05, 0xf8, 0x03, 0x1e, 0x20, 0xef, 0x0d, 0x01, 0xcb, 0x20, 0x02, 0x22,
  0x43, 0xee, 0xf9, 0xe7, 0x5a, 0xe5, 0x01, 0xfe, 0x3b, 0xf7, 0xf6, 0xd8,
  0xe4, 0x1a, 0xf6, 0xf7, 0xd7, 0xf3, 0x11, 0x23, 0xfd, 0x0f, 0xf5, 0x1f,
  0xfd, 0x04, 0xeb, 0xda, 0xf7, 0xf3, 0xf6, 0x1d, 0xf9, 0xef, 0xe7, 0x2b,
  0x05, 0xfa, 0x0c, 0xf1, 0x08, 0xfe, 0x0a, 0x02, 0xf9, 0x0b, 0x13, 0x0a,
  0xfb, 0x00, 0x0b, 0x02, 0x05, 0xfb, 0xe3, 0x0f, 0xfa, 0x0f, 0x13, 0x15,
  0xff, 0xf3, 0x03, 0xfd, 0xfd, 0x08, 0xfc, 0xe2, 0x02, 0x06, 0xed, 0x06,
  0x04, 0x11, 0x10, 0xd0, 0x0e, 0xf8, 0x08, 0xe6, 0xf8, 0xfb, 0xfd, 0x34,
  0x0b, 0x0a, 0x19, 0xe6, 0xf2, 0x04, 0xed, 0x21, 0xf8, 0xfd, 0xee, 0x2a,
  0xf8, 0x11, 0xf1, 0x18, 0x16, 0xfa, 0x04, 0xf1, 0x07, 0x04, 0x01, 0xfe,
  0x12, 0xee, 0x1d, 0xe3, 0xf4, 0xff, 0xff, 0x0f, 0xf7, 0x1b, 0xfc, 0x08,
  0x1c, 0xf3, 0x30, 0xd1, 0xef, 0x0a, 0xf3, 0x22, 0xfe, 0xf5, 0x00, 0x02,
  0xfc, 0x2b, 0xff, 0xfa, 0x08, 0xf5, 0x0e, 0xef, 0xe8, 0x04, 0xec, 0x1b,
  0x0f, 0x0a, 0x16, 0xe9, 0x12, 0xf8, 0xf5, 0x43, 0x4e, 0xf0, 0xeb, 0x00,
  0xf5, 0xfb, 0x15, 0x22, 0xfb, 0xfd, 0x0d, 0x0e, 0x01, 0xf8, 0xf7, 0xe5,
  0xf9, 0x0d, 0x02, 0xe8, 0xf5, 0x04, 0x0c, 0x21, 0xea, 0x13, 0x0f, 0xf0,
  0x1a, 0xf4, 0xf1, 0x0e, 0xfa, 0x15, 0x03, 0x38, 0xef, 0x10, 0x10, 0xd8,
  0x2c, 0xed, 0xf3, 0x07, 0x49, 0xee, 0xe8, 0x1c, 0x1f, 0x01, 0xee, 0xff,
  0xfe, 0x04, 0xfd, 0xbd, 0xdf, 0x05, 0x0c, 0x1f, 0xf5, 0xff, 0x07, 0x19,
  0xf6, 0xe3, 0xe6, 0xe2, 0x12, 0x07, 0xfc, 0xf5, 0x12, 0xf9, 0xf8, 0x01,
  0xf8, 0x08, 0x0c, 0xff, 0x02, 0x08, 0x03, 0x0a, 0xf3, 0x19, 0x09, 0x0c,
  0x15, 0x02, 0xf4, 0x08, 0x0a, 0xef, 0xf8, 0x03, 0xf7, 0x21, 0x16, 0x20,
  0x1d, 0xf6, 0xf7, 0xf8, 0xf2, 0xef, 0xf0, 0xec, 0xff, 0xe5, 0xef, 0x07,
  0xef, 0xfb, 0xfd, 0xff, 0x05, 0x01, 0xfe, 0xfb, 0x07, 0x09, 0x10, 0x1d,
  0x14, 0x07, 0xff, 0xf7, 0x00, 0xff, 0x0a, 0x0d, 0xf7, 0xf7, 0xf8, 0x11,
  0xff, 0x18, 0xf3, 0x09, 0xff, 0xf5, 0x02, 0x02, 0x03, 0x0a, 0xf5, 0x03,
  0x0c, 0xe5, 0xfd, 0xf5, 0xf2, 0x09, 0x06, 0x07, 0x03, 0x24, 0x06, 0x0e,
  0x13, 0xf4, 0x00, 0xf3, 0xf1, 0x09, 0xff, 0x13, 0x03, 0xe2, 0x0e, 0x06,
  0x0d, 0x2f, 0x0d, 0x04, 0x09, 0xec, 0x0e, 0x00, 0xf0, 0x10, 0xf9, 0x0b,
  0x0f, 0x19, 0xf6, 0xf2, 0x10, 0xfa, 0x03, 0xeb, 0x37, 0x03, 0x04, 0xed,
  0xf6, 0xec, 0xf4, 0x3b, 0xff, 0xfc, 0xfb, 0x08, 0xfa, 0x12, 0x04, 0xf1,
  0xee, 0x0a, 0x00, 0x04, 0xf6, 0xee, 0x00, 0xf8, 0xf8, 0x1b, 0xfe, 0x08,
  0x13, 0x03, 0xfe, 0xfc, 0xf8, 0x07, 0x05, 0xd5, 0xee, 0x15, 0x02, 0x19,
  0x2e, 0xfc, 0x03, 0xdf, 0x35, 0x0a, 0x04, 0xe5, 0x1f, 0x11, 0x0e, 0xe5,
  0xe8, 0x13, 0x04, 0x32, 0xea, 0xf6, 0xfc, 0xfc, 0xfb, 0xf8, 0x07, 0xff,
  0xec, 0xfb, 0xee, 0xf7, 0x03, 0x16, 0xf2, 0xfe, 0x08, 0x04, 0x09, 0x05,
  0xf8, 0xf9, 0x05, 0xfc, 0x09, 0xfb, 0x0e, 0x05, 0x03, 0x12, 0xf3, 0x02,
  0x11, 0xfe, 0x0a, 0x04, 0x02, 0xf8, 0x07, 0xfd, 0x09, 0xfc, 0x0d, 0x02,
  0x18, 0x03, 0x16, 0x08, 0xf0, 0xf7, 0xea, 0xf4, 0xf4, 0xea, 0xfd, 0xf9,
  0xee, 0xf5, 0xf1, 0xf5, 0x00, 0xf8, 0x14, 0x06, 0x07, 0xfe, 0x0c, 0x02,
  0x01, 0x06, 0x06, 0x1c, 0x1c, 0x15, 0xfe, 0xfe, 0xf8, 0xf8, 0xe7, 0x09,
  0xf9, 0xec, 0xf4, 0x13, 0xf5, 0x06, 0x00, 0xeb, 0xf2, 0xfc, 0x0a, 0xfd,
  0x07, 0x0b, 0x08, 0x01, 0xfa, 0x0a, 0x07, 0xf5, 0x01, 0xfc, 0xfe, 0x12,
  0xfa, 0x0b, 0x0c, 0x10, 0xff, 0xf6, 0xfd, 0xf5, 0x21, 0x28, 0x04, 0x07,
  0x05, 0x1c, 0x00, 0x1e, 0x1b, 0x1d, 0x0d, 0xf7, 0xf6, 0xf3, 0xfb, 0xe2,
  0xf0, 0xf4, 0xfd, 0x1d, 0x02, 0xf9, 0x02, 0x06, 0x11, 0x1d, 0xfa, 0xf1,
  0x09, 0xef, 0xf0, 0x32, 0xff, 0x15, 0xfc, 0x0d, 0xfe, 0x01, 0x07, 0xf4,
  0xf6, 0x11, 0x0c, 0xf6, 0x00, 0xd0, 0xf0, 0x0b, 0x02, 0x07, 0xfb, 0x00,
  0x01, 0x31, 0x0a, 0x01, 0xfc, 0xdd, 0xfb, 0x0d, 0x00, 0x14, 0x03, 0xfc,
  0x17, 0xec, 0xf1, 0xf2, 0x0b, 0x31, 0x04, 0xfe, 0x0c, 0xfa, 0x06, 0xf1,
  0xf9, 0x1d, 0x13, 0xe2, 0xfb, 0xfb, 0xff, 0x0e, 0x04, 0x02, 0x05, 0x0b,
  0xff, 0xfb, 0xfe, 0xfb, 0x13, 0x0d, 0x16, 0x20, 0x18, 0x0a, 0x0b, 0x01,
  0xfc, 0xfb, 0xfd, 0xf7, 0xff, 0xfd, 0x00, 0xf1, 0xec, 0xfb, 0x04, 0x0e,
  0x07, 0x04, 0xfc, 0xfa, 0x11, 0x08, 0x03, 0xf8, 0xf3, 0xf9, 0xfb, 0x09,
  0x0d, 0x08, 0xff, 0xf2, 0xf4, 0xf5, 0x02, 0x0a, 0x0b, 0x02, 0x06, 0xff,
  0xee, 0xee, 0xf5, 0x02, 0x03, 0xfe, 0xf7, 0xe4, 0x06, 0x01, 0x0b, 0x04,
  0x18, 0x02, 0x14, 0x12, 0x02, 0x08, 0xfc, 0xfd, 0xeb, 0xf0, 0xf6, 0xec,
  0xf2, 0xea, 0xf9, 0x00, 0x07, 0x05, 0x00, 0x17, 0x04, 0x01, 0xfb, 0x06,
  0x0d, 0x0f, 0x09, 0xf5, 0xf2, 0xf0, 0xfc, 0xf8, 0x05, 0xf2, 0x01, 0x1c,
  0x17, 0x08, 0x0f, 0x09, 0xf2, 0xf0, 0xf1, 0xfd, 0x0a, 0x14, 0x04, 0xfa,
  0x0b, 0xff, 0x0d, 0x10, 0x16, 0x1d, 0x08, 0xff, 0xf5, 0xfe, 0xed, 0xf5,
  0x04, 0xf1, 0x0a, 0x08, 0xfd, 0x00, 0xe8, 0x03, 0x08, 0x08, 0x04, 0xf0,
  0x09, 0xe7, 0xfb, 0x14, 0x01, 0xfa, 0xff, 0x00, 0xfd, 0x0b, 0x0a, 0xfc,
  0x02, 0x10, 0x12, 0xf2, 0xfe, 0xe4, 0xeb, 0x20, 0x02, 0x05, 0x07, 0xfc,
  0x03, 0x14, 0x05, 0xf1, 0xfd, 0x00, 0xf0, 0x1c, 0x03, 0x05, 0x11, 0xee,
  0x08, 0xfb, 0xf9, 0xfb, 0x04, 0x16, 0xf2, 0xf4, 0x02, 0x11, 0xff, 0xf6,
  0x05, 0x17, 0x17, 0xee, 0xfc, 0xf9, 0xf0, 0x03, 0x07, 0xfe, 0x0b, 0xec,
  0x09, 0x1c, 0x03, 0xfa, 0x07, 0x13, 0x0f, 0x0f, 0xf2, 0x04, 0x0b, 0xfe,
  0x00, 0xf7, 0xf9, 0x06, 0xf4, 0xee, 0xf7, 0x06, 0x0b, 0x0c, 0x02, 0xff,
  0xfd, 0xf9, 0x02, 0x0b, 0xf4, 0xf7, 0x06, 0xf4, 0x03, 0xf5, 0xfd, 0xfc,
  0xf8, 0xf3, 0xfd, 0x0b, 0x0e, 0x2e, 0x0f, 0xf5, 0x01, 0x08, 0x0a, 0xe7,
  0x07, 0x09, 0xf8, 0xf7, 0xea, 0xf5, 0xf4, 0x09, 0x00, 0xfa, 0x0c, 0xf0,
  0xf8, 0x0d, 0x06, 0xfc, 0xe8, 0x13, 0x01, 0xfa, 0x09, 0x02, 0xf3, 0xea,
  0x11, 0xf5, 0xfe, 0xf1, 0x06, 0x02, 0x01, 0x09, 0x0d, 0xf1, 0x05, 0x12,
  0xf7, 0x09, 0xfd, 0x09, 0x05, 0xfd, 0x02, 0x07, 0x07, 0xfd, 0xfd, 0x00,
  0x05, 0x02, 0x03, 0x1a, 0x0d, 0xef, 0xfe, 0x05, 0xe8, 0x25, 0x03, 0xfd,
  0xf2, 0x11, 0x04, 0xf1, 0xe8, 0x17, 0x09, 0x10, 0x0e, 0xf3, 0xfb, 0x07,
  0x0d, 0x01, 0xff, 0xfb, 0xfd, 0x04, 0xf7, 0xe8, 0x04, 0x07, 0xef, 0xf3,
  0x0a, 0xe3, 0x03, 0x2e, 0xfb, 0xf4, 0xfc, 0x07, 0xfe, 0x07, 0xf9, 0x09,
  0xff, 0x06, 0xfd, 0xfd, 0x08, 0xed, 0x13, 0xf5, 0x02, 0xff, 0x05, 0x03,
  0xf3, 0x0d, 0xed, 0x00, 0xff, 0xfc, 0x14, 0xea, 0xfe, 0x01, 0x02, 0x08,
  0x17, 0xfe, 0xfa, 0xeb, 0xfb, 0x13, 0xee, 0xeb, 0x07, 0x0e, 0xfc, 0xf1,
  0xfe, 0x12, 0xfe, 0x40, 0xfa, 0xf9, 0x01, 0xf9, 0x07, 0xec, 0xfe, 0xfd,
  0x03, 0x19, 0x07, 0x02, 0x03, 0x06, 0x21, 0xfe, 0x09, 0xfa, 0x11, 0xf4,
  0x06, 0x04, 0xf7, 0x02, 0xff, 0xf3, 0xf5, 0xfb, 0xf6, 0xf9, 0xfd, 0x03,
  0x02, 0xfa, 0x02, 0xfb, 0x09, 0xf5, 0x02, 0xfd, 0xf8, 0xe6, 0xf3, 0x01,
  0x01, 0xf9, 0xfc, 0xff, 0x01, 0x11, 0x09, 0x08, 0x13, 0xfb, 0x0a, 0xfb,
  0xf6, 0x0c, 0xf3, 0x0a, 0xfd, 0x08, 0xfb, 0xff, 0x07, 0xe3, 0x04, 0xfd,
  0x08, 0x0c, 0xf7, 0xf8, 0x05, 0x0c, 0xf3, 0xe7, 0xf8, 0xff, 0xf8, 0x04,
  0xfe, 0xff, 0xf7, 0xf8, 0xfe, 0xfc, 0x08, 0x09, 0xff, 0xfd, 0x0a, 0x08,
  0xf3, 0x04, 0x06, 0x07, 0xfa, 0xf8, 0x01, 0xfe, 0x16, 0x05, 0xf5, 0xfc,
  0xfc, 0x03, 0x00, 0x0b, 0xff, 0xf8, 0x02, 0x05, 0xf7, 0x1d, 0xf8, 0xed,
  0x15, 0x19, 0xf0, 0xed, 0xfd, 0x0c, 0x09, 0xf5, 0x05, 0xf7, 0x08, 0x01,
  0x07, 0x05, 0xfc, 0x04, 0xed, 0x08, 0xec, 0x0c, 0x1b, 0x0e, 0xe8, 0x03,
  0x06, 0xf3, 0x15, 0xf7, 0x00, 0xf2, 0xff, 0xf8, 0x00, 0x08, 0x04, 0x05,
  0x01, 0xf5, 0x0e, 0x07, 0xfa, 0xfc, 0x04, 0x09, 0x05, 0xf4, 0x0b, 0xfb,
  0x11, 0x0f, 0xee, 0x02, 0xf0, 0x03, 0xfc, 0x0e, 0x0c, 0xef, 0x10, 0xff,
  0x11, 0x0a, 0xed, 0xfb, 0x1e, 0x10, 0xe0, 0xfe, 0x11, 0x08, 0xee, 0x00,
  0x10, 0xfa, 0x0c, 0xfd, 0xe2, 0xfa, 0xf8, 0x04, 0x07, 0x00, 0x00, 0xe7,
  0xf2, 0x03, 0x0a, 0x03, 0xfd, 0x06, 0xfd, 0x08, 0x06, 0xee, 0xfb, 0x03,
  0x05, 0xff, 0xff, 0xfc, 0x0c, 0xf7, 0xff, 0x01, 0xfa, 0x24, 0xfd, 0xfd,
  0xfd, 0xf8, 0x00, 0xfe, 0x0b, 0xe3, 0x00, 0xf7, 0x01, 0x14, 0xfb, 0xf3,
  0x05, 0xf1, 0xf9, 0x0a, 0xed, 0x1b, 0x0f, 0xfc, 0x00, 0xf4, 0x03, 0xe6,
  0xf3, 0x1c, 0x0b, 0x02, 0x03, 0xea, 0x01, 0x17, 0x0d, 0xfa, 0xfc, 0xec,
  0x14, 0xfd, 0x06, 0x04, 0xfb, 0x12, 0xe9, 0xf6, 0x07, 0x05, 0xf0, 0xee,
  0x0a, 0x00, 0x04, 0xf1, 0xfd, 0x05, 0x02, 0x02, 0xfa, 0x03, 0x18, 0x04,
  0x00, 0xf4, 0xf8, 0x0d, 0xf5, 0xfb, 0x01, 0xfd, 0x0e, 0x0f, 0x06, 0xf5,
  0x05, 0xf5, 0x05, 0x10, 0xf5, 0x02, 0x10, 0xfa, 0xfb, 0x0e, 0xea, 0x04,
  0x1c, 0x1c, 0xfe, 0xf8, 0xf7, 0x08, 0xfd, 0x09, 0xf4, 0x08, 0x10, 0xfe,
  0x10, 0xfe, 0x0b, 0xff, 0xff, 0x15, 0xf5, 0xf6, 0x0e, 0xff, 0xfb, 0x0f,
  0x07, 0xf3, 0x23, 0x0b, 0x05, 0xef, 0xfa, 0xfa, 0xfd, 0xf4, 0xfc, 0x00,
  0xfa, 0xf8, 0xf9, 0x00, 0x02, 0x1d, 0x0b, 0xef, 0x0d, 0xfe, 0x02, 0xfd,
  0x16, 0xf0, 0xe7, 0x08, 0xf8, 0x21, 0xff, 0xf0, 0x03, 0xec, 0x01, 0x02,
  0x04, 0x0d, 0x09, 0x07, 0x1f, 0xff, 0xe4, 0x06, 0x0b, 0x11, 0x01, 0x0e,
  0xfe, 0xed, 0xfb, 0x11, 0xef, 0x06, 0xfc, 0xec, 0xf8, 0x08, 0xf1, 0xf6,
  0x14, 0xec, 0x0a, 0xf6, 0x05, 0xf2, 0xff, 0x0b, 0xfe, 0xf1, 0xf9, 0x0d,
  0xfd, 0x02, 0x03, 0xff, 0xf5, 0x0d, 0x01, 0x05, 0x05, 0x23, 0xfa, 0x05,
  0x08, 0xfb, 0x0b, 0x05, 0x00, 0xe9, 0xfe, 0xfa, 0xff, 0x21, 0xf3, 0xf5,
  0x00, 0xf2, 0x0e, 0xfd, 0x1c, 0x00, 0xfb, 0xe9, 0x01, 0xf2, 0xee, 0xed,
  0x09, 0x13, 0x06, 0xea, 0xf9, 0xee, 0x13, 0x0e, 0xfa, 0x04, 0xec, 0x0d,
  0x08, 0x05, 0x0e, 0x2a, 0x04, 0x11, 0xf6, 0x00, 0xf9, 0x08, 0xec, 0x00,
  0xf8, 0xfd, 0xfc, 0x07, 0x08, 0xf4, 0x03, 0x01, 0x01, 0xf7, 0x0d, 0xfb,
  0x01, 0x13, 0xf5, 0x05, 0xff, 0xfd, 0xfe, 0xf9, 0x03, 0xff, 0x0d, 0x10,
  0x04, 0x08, 0x13, 0x17, 0xf6, 0xf7, 0x03, 0xf0, 0x0d, 0x17, 0xf0, 0x0a,
  0x08, 0x06, 0x04, 0x23, 0x0b, 0x14, 0x06, 0xfa, 0xf9, 0xf2, 0x04, 0xe1,
  0xff, 0xf4, 0x0f, 0x23, 0x01, 0x21, 0xf3, 0xfe, 0xe2, 0xf8, 0x00, 0xf2,
  0x05, 0xfa, 0x0e, 0x0b, 0x09, 0x00, 0x0a, 0x0e, 0xfb, 0xf9, 0xfe, 0xfd,
  0x03, 0xfa, 0x06, 0x12, 0xf7, 0x15, 0xf5, 0x03, 0xfa, 0xf1, 0x09, 0x07,
  0x06, 0xff, 0x06, 0x03, 0x04, 0x23, 0xf3, 0x0b, 0xfb, 0xf0, 0x0b, 0x07,
  0xf2, 0x0a, 0xf5, 0xea, 0x0e, 0x13, 0x05, 0xf9, 0xf2, 0x07, 0xf3, 0xf9,
  0x00, 0xef, 0x0b, 0x14, 0x13, 0x14, 0xf8, 0x04, 0xe2, 0x13, 0xf8, 0xdd,
  0xff, 0xfc, 0xef, 0x0f, 0xf8, 0x1a, 0xfb, 0x05, 0xf5, 0x04, 0x05, 0xfb,
  0xfa, 0xed, 0x0d, 0xfa, 0xfb, 0xe7, 0x10, 0xff, 0xfc, 0x22, 0xe6, 0xf8,
  0x0d, 0xf5, 0x02, 0x18, 0xf2, 0xf4, 0x02, 0xf6, 0xfe, 0x17, 0xf4, 0xee,
  0x0e, 0xf3, 0x06, 0x0e, 0x06, 0x18, 0xd8, 0x0d, 0xf0, 0x0e, 0xfd, 0xf2,
  0x07, 0x0b, 0xec, 0x0a, 0x14, 0xd6, 0x1d, 0x11, 0xed, 0x10, 0xff, 0xe5,
  0x13, 0x09, 0x00, 0xfe, 0xec, 0xfd, 0xfa, 0x04, 0xf4, 0x03, 0xfb, 0x0f,
  0xfa, 0xec, 0x1d, 0x06, 0x04, 0x00, 0xee, 0x02, 0x07, 0xf0, 0x02, 0xf8,
  0x0a, 0x16, 0xdf, 0x0c, 0xfb, 0xf1, 0x03, 0x0d, 0xff, 0xe9, 0x23, 0xf9,
  0x18, 0x0f, 0xf2, 0xfc, 0xf8, 0xef, 0x10, 0x06, 0xf3, 0x1d, 0xe6, 0x0b,
  0x04, 0xfd, 0x13, 0xfb, 0xfe, 0x14, 0xea, 0xfe, 0xf9, 0xe7, 0x17, 0xf5,
  0x12, 0x06, 0x0b, 0x00, 0xe9, 0x1a, 0x0d, 0xf9, 0x07, 0x0a, 0xfb, 0x07,
  0xfb, 0xf4, 0x1f, 0xf5, 0x02, 0xf0, 0x0e, 0x03, 0x06, 0xfa, 0xf7, 0x03,
  0x0e, 0xf0, 0xef, 0x0b, 0xe3, 0x14, 0x02, 0xf0, 0x09, 0x01, 0xf9, 0xfb,
  0x0b, 0x03, 0x01, 0x1c, 0xef, 0x1c, 0x01, 0xf9, 0x0b, 0xe8, 0xf9, 0x00,
  0xe4, 0x28, 0x08, 0xec, 0xfa, 0x25, 0x1f, 0x0d, 0xf1, 0x29, 0xf3, 0xf8,
  0x22, 0xe6, 0xef, 0x19, 0xf1, 0xfe, 0x15, 0xfa, 0x02, 0x0c, 0x14, 0xf6,
  0xfd, 0x06, 0xed, 0xf5, 0xf3, 0xf9, 0xed, 0xf9, 0xfa, 0xf3, 0xf4, 0xf6,
  0xfd, 0x05, 0xfc, 0x01, 0xfb, 0xfe, 0x08, 0xfe, 0x00, 0xfc, 0xf3, 0x17,
  0x0f, 0xf0, 0xf0, 0x0b, 0x02, 0x0c, 0x02, 0xe9, 0x10, 0x01, 0x0e, 0x09,
  0x0f, 0xf5, 0xf3, 0x03, 0xfa, 0x07, 0xdf, 0x0e, 0x0f, 0x0f, 0x05, 0xec,
  0x07, 0x08, 0xf7, 0x12, 0x02, 0xff, 0x0f, 0xfe, 0xf9, 0x02, 0x13, 0x00,
  0x02, 0xe5, 0xef, 0x13, 0x07, 0x0d, 0x05, 0xf9, 0xfa, 0x03, 0xf6, 0x11,
  0xec, 0xfa, 0xf0, 0x10, 0x0a, 0x05, 0x03, 0xf3, 0x01, 0xff, 0xfe, 0xf7,
  0x06, 0xf3, 0xfd, 0x02, 0xff, 0x10, 0x0c, 0xfb, 0xf5, 0xf1, 0xf7, 0x06,
  0x0d, 0xef, 0xfb, 0x04, 0xfa, 0x10, 0x04, 0xfa, 0x14, 0xf7, 0xfd, 0x02,
  0x01, 0xe4, 0xf6, 0x0a, 0x15, 0x00, 0x08, 0xed, 0xf7, 0x17, 0x0d, 0xec,
  0xf1, 0xe3, 0xf1, 0x18, 0xf0, 0x0f, 0x01, 0x03, 0x0b, 0x00, 0xf2, 0xfe,
  0x07, 0x05, 0x01, 0x02, 0x07, 0x00, 0x02, 0x0b, 0x03, 0x07, 0x08, 0xfd,
  0x0a, 0xf7, 0x09, 0x05, 0xe6, 0x12, 0x03, 0xf0, 0x0c, 0x04, 0x09, 0x04,
  0x1b, 0xf9, 0xfa, 0x0e, 0xea, 0x11, 0x04, 0xfc, 0x0f, 0xf3, 0x03, 0x02,
  0xf6, 0x16, 0xf9, 0xf2, 0x13, 0x12, 0xfa, 0x01, 0xef, 0x06, 0xf6, 0xec,
  0x15, 0xf0, 0x00, 0x0b, 0xf7, 0x0b, 0x0a, 0x09, 0x1f, 0x08, 0x2d, 0xfa,
  0x13, 0x05, 0xdc, 0xf2, 0xef, 0x0d, 0xe4, 0xf0, 0xf4, 0xfc, 0xee, 0xe9,
  0x08, 0xf4, 0x0b, 0x11, 0xf6, 0xf9, 0x10, 0x0d, 0x0d, 0x02, 0x0c, 0x0a,
  0xf2, 0xfe, 0xf4, 0x04, 0x05, 0x04, 0xf9, 0xe8, 0x16, 0x06, 0x2f, 0x0a,
  0xea, 0x01, 0xf0, 0xf9, 0x25, 0xff, 0xf1, 0xf9, 0x37, 0x04, 0x17, 0xef,
  0x19, 0x00, 0x10, 0x04, 0xf7, 0xf2, 0xf9, 0x05, 0xf8, 0x03, 0x1c, 0xfe,
  0xf5, 0xf7, 0xf3, 0x03, 0x0a, 0x05, 0x12, 0xf7, 0x13, 0xff, 0x0a, 0x0a,
  0x0c, 0xfe, 0x0e, 0x01, 0xfd, 0x05, 0xfb, 0xf8, 0x03, 0x04, 0xf2, 0xff,
  0xf3, 0xff, 0xf2, 0x0a, 0x09, 0x09, 0x08, 0xff, 0x0c, 0xf7, 0x0e, 0xf9,
  0xed, 0xfe, 0xeb, 0x09, 0x11, 0x04, 0x0c, 0xf9, 0x07, 0x00, 0xfe, 0xfe,
  0x03, 0xfd, 0x0f, 0xfa, 0xfc, 0x02, 0xf8, 0xfa, 0x05, 0x07, 0x08, 0xf2,
  0xf2, 0xf5, 0xfb, 0x07, 0x19, 0x12, 0x05, 0xfd, 0xf8, 0x02, 0xf5, 0xfb,
  0x04, 0xeb, 0x0c, 0xf1, 0x0e, 0xee, 0xfe, 0xf9, 0x02, 0x06, 0xfe, 0x0a,
  0x02, 0x09, 0xf8, 0x07, 0xff, 0x13, 0x16, 0xf4, 0xfc, 0x00, 0xfe, 0xfc,
  0x0e, 0xf6, 0xf9, 0x02, 0x0e, 0x18, 0x10, 0xfd, 0x0e, 0xf6, 0xfc, 0x03,
  0x02, 0x13, 0x0e, 0xfa, 0x19, 0x0c, 0xfc, 0x01, 0xf3, 0x19, 0x01, 0x08,
  0xf4, 0xfc, 0xea, 0x13, 0x17, 0xfc, 0x0b, 0xf6, 0x0b, 0x14, 0x16, 0xff,
  0x15, 0xfd, 0xf7, 0x12, 0x09, 0xf8, 0xe8, 0x01, 0x0e, 0xf7, 0xf0, 0x01,
  0xf3, 0x02, 0x11, 0xf8, 0xee, 0x09, 0x0c, 0xf7, 0x10, 0xff, 0x03, 0xfd,
  0x0a, 0xf9, 0xf9, 0xf6, 0xfb, 0x0d, 0x05, 0x06, 0x08, 0x0c, 0x14, 0xfc,
  0x02, 0xf7, 0xf8, 0xf1, 0x23, 0xff, 0x00, 0x13, 0x19, 0x07, 0x18, 0x20,
  0x03, 0x07, 0x0a, 0x0b, 0xea, 0xf9, 0xff, 0xfd, 0x06, 0x09, 0x0e, 0xfa,
  0xfc, 0xff, 0x0a, 0x0b, 0xf5, 0xea, 0xe7, 0xfa, 0xfa, 0x0e, 0xf1, 0xf8,
  0xfa, 0x07, 0xfa, 0xfb, 0x01, 0xfe, 0x09, 0x05, 0x0f, 0x02, 0x09, 0xfb,
  0x06, 0x0e, 0x07, 0x0f, 0x05, 0x03, 0xfc, 0xf3, 0xfb, 0xf3, 0xfe, 0x00,
  0x0a, 0x09, 0x12, 0x1d, 0x07, 0x01, 0xfb, 0xee, 0xf4, 0xf8, 0xea, 0x07,
  0xf5, 0xf7, 0x01, 0xfb, 0xfb, 0xf0, 0xfe, 0x0a, 0x06, 0xf6, 0x04, 0xec,
  0xfe, 0x0b, 0x17, 0x09, 0x44, 0xee, 0xfc, 0xf9, 0xf3, 0xf5, 0x0e, 0xf0,
  0x0d, 0xfe, 0xff, 0xfe, 0x13, 0x00, 0xef, 0xf7, 0x00, 0xff, 0x0a, 0x05,
  0xee, 0xff, 0xfc, 0x0b, 0x1c, 0x14, 0x02, 0x11, 0xe7, 0x00, 0xf9, 0x07,
  0x02, 0xec, 0x03, 0xf4, 0x2c, 0x0a, 0x02, 0x0d, 0xe9, 0x08, 0xfb, 0xff,
  0x09, 0x03, 0x12, 0xf8, 0x2e, 0xf1, 0x05, 0xf6, 0xfb, 0x03, 0x14, 0x01,
  0xda, 0x00, 0xff, 0x03, 0x2b, 0x03, 0xf2, 0xfb, 0xef, 0x0a, 0x16, 0x07,
  0x1d, 0xf1, 0xf9, 0x10, 0x09, 0xf7, 0xf2, 0xfb, 0xf8, 0x03, 0xfe, 0xf9,
  0xec, 0x01, 0x13, 0xfd, 0xe9, 0x07, 0x09, 0xfd, 0x0a, 0x08, 0xf5, 0xff,
  0x0d, 0xfc, 0xee, 0xed, 0xf7, 0x02, 0x12, 0x08, 0xf3, 0x0b, 0x09, 0x01,
  0x0a, 0x02, 0xf8, 0xf6, 0x21, 0xf1, 0xfe, 0x13, 0x10, 0x00, 0x25, 0x1e,
  0x10, 0xf5, 0xfc, 0x07, 0xfc, 0xfd, 0x00, 0xfc, 0xdb, 0x11, 0x18, 0xff,
  0x03, 0x15, 0xfc, 0x06, 0x08, 0xf1, 0xe7, 0xf1, 0x06, 0xf7, 0x00, 0xee,
  0xff, 0x0b, 0xf8, 0xfb, 0xfa, 0x00, 0x02, 0x06, 0xf4, 0x0e, 0x09, 0x08,
  0x07, 0xfd, 0x0c, 0x0b, 0x06, 0xf7, 0xff, 0xfe, 0x02, 0x0c, 0xe3, 0xf8,
  0x08, 0x07, 0x0e, 0x15, 0xf6, 0xf9, 0xf8, 0xfb, 0x0d, 0xed, 0xfb, 0xf5,
  0xff, 0x17, 0xe8, 0xf5, 0x06, 0xf4, 0xfb, 0x09, 0xee, 0xf8, 0xfd, 0xff,
  0x00, 0x1a, 0x09, 0xff, 0x21, 0xfa, 0x00, 0xfc, 0xe7, 0xf9, 0x05, 0x02,
  0xfc, 0xf4, 0x0a, 0x08, 0x02, 0xfb, 0xfd, 0xfb, 0xfc, 0x04, 0x02, 0x0b,
  0x08, 0x0d, 0xfc, 0xf7, 0x17, 0xfb, 0x00, 0x12, 0xfb, 0xfd, 0x01, 0x05,
  0xfb, 0x0a, 0xfb, 0xf1, 0x31, 0xfe, 0xfd, 0x07, 0xf4, 0x09, 0xff, 0xf8,
  0x02, 0xee, 0x04, 0x10, 0x06, 0xfc, 0xfb, 0xff, 0xfd, 0x00, 0x01, 0x04,
  0xee, 0x14, 0xfa, 0xef, 0x1a, 0xff, 0xfe, 0xff, 0x25, 0x0b, 0xfb, 0xfc,
  0x0c, 0xf0, 0x1a, 0x10, 0x0c, 0xef, 0x08, 0x03, 0x0c, 0x05, 0x0a, 0xfd,
  0xee, 0x02, 0xed, 0x0a, 0xf1, 0x10, 0xee, 0xfd, 0x0f, 0xf9, 0xf5, 0xf4,
  0x06, 0x00, 0xfb, 0xf8, 0x0a, 0x0e, 0x0d, 0x05, 0x0f, 0x0b, 0xf2, 0xf6,
  0xe9, 0xfe, 0x04, 0x05, 0x1c, 0xea, 0x11, 0x08, 0x25, 0x07, 0x10, 0x13,
  0x04, 0xfc, 0x00, 0xf8, 0xdf, 0x05, 0x03, 0x00, 0x12, 0x10, 0xf8, 0xfb,
  0xf8, 0x0a, 0xf8, 0x0a, 0x05, 0xfe, 0xfa, 0xfd, 0x0b, 0x03, 0x01, 0xf7,
  0xfb, 0x0b, 0xf4, 0xfe, 0x04, 0xee, 0x02, 0x04, 0xf6, 0xfa, 0x00, 0x0a,
  0x08, 0xfe, 0x09, 0xfd, 0xff, 0xfb, 0xf5, 0xfc, 0xfe, 0x02, 0xeb, 0x03,
  0x02, 0x02, 0x00, 0x0a, 0xfa, 0xfd, 0xf8, 0xf4, 0x05, 0x04, 0x04, 0xfa,
  0xf7, 0x0d, 0xfa, 0x04, 0x03, 0xf6, 0x07, 0xfb, 0xff, 0xf8, 0x02, 0xff,
  0xf7, 0x0c, 0xf4, 0x06, 0x12, 0xe5, 0x03, 0xf8, 0x0a, 0xf3, 0xf4, 0x05,
  0x12, 0x0f, 0xf8, 0xfd, 0x09, 0x1e, 0xfc, 0x01, 0xec, 0xf4, 0x0b, 0x08,
  0xf1, 0x07, 0x09, 0x07, 0x0a, 0xe1, 0x00, 0xf5, 0xf6, 0x0b, 0x03, 0x03,
  0x01, 0x0e, 0xfa, 0x0b, 0x0a, 0xe0, 0x07, 0xfc, 0xf8, 0x1b, 0x04, 0x04,
  0x17, 0xe2, 0xf4, 0xf6, 0x07, 0xf9, 0xf6, 0x08, 0x01, 0xe0, 0x00, 0x01,
  0xe8, 0x15, 0xff, 0x13, 0x0b, 0x0a, 0xfe, 0xf7, 0x3d, 0xf3, 0xfe, 0x18,
  0xf7, 0x07, 0x10, 0xfa, 0xff, 0xfc, 0x08, 0x15, 0xf7, 0x04, 0x03, 0x0e,
  0xfe, 0xf9, 0xf7, 0x06, 0x01, 0xff, 0xf5, 0x03, 0x22, 0xf1, 0xfd, 0xfb,
  0xfe, 0x07, 0xfa, 0xed, 0xfc, 0x0b, 0x09, 0x0d, 0x39, 0xf1, 0x00, 0x07,
  0xe2, 0x0d, 0xf9, 0xf5, 0x0e, 0x00, 0x10, 0x00, 0x1f, 0x04, 0x08, 0x25,
  0x0b, 0xfa, 0x0b, 0xe8, 0xdf, 0x0d, 0x00, 0xf2, 0x1f, 0xf5, 0x00, 0x25,
  0x04, 0x06, 0xf3, 0xf3, 0xf8, 0x04, 0x0c, 0x08, 0x16, 0xf6, 0x07, 0xfd,
  0xfc, 0xef, 0xfb, 0xfe, 0x09, 0x00, 0xff, 0xfd, 0xfa, 0xfb, 0xf9, 0x04,
  0x0b, 0x08, 0x01, 0xf6, 0xf7, 0xf5, 0x08, 0x06, 0xfb, 0xf8, 0xf8, 0x05,
  0x04, 0x0e, 0xf1, 0xf3, 0xf3, 0xf2, 0x06, 0x04, 0xfc, 0x17, 0x0f, 0xff,
  0xf4, 0x08, 0xfe, 0xff, 0xf6, 0x1b, 0x02, 0x00, 0xf5, 0xf5, 0xfe, 0x11,
  0x02, 0xfc, 0xec, 0xee, 0x04, 0xe4, 0xec, 0x06, 0x12, 0xf9, 0x03, 0x05,
  0xfb, 0xf9, 0x16, 0x14, 0x02, 0xfc, 0x07, 0x0a, 0x08, 0x0b, 0xfd, 0xe8,
  0x03, 0x0d, 0x04, 0xf8, 0xff, 0xeb, 0xfb, 0x14, 0xfb, 0x04, 0x06, 0x05,
  0x10, 0xfd, 0xf7, 0x00, 0x02, 0xec, 0xef, 0x05, 0x01, 0x12, 0x0e, 0xf9,
  0x08, 0xe7, 0xfa, 0x05, 0x10, 0xeb, 0xf1, 0x03, 0x0a, 0xfa, 0xf1, 0x04,
  0x03, 0x25, 0x09, 0xed, 0xf2, 0xf4, 0xf8, 0xfe, 0x2f, 0xf0, 0xfe, 0xfd,
  0xea, 0x20, 0x0b, 0x04, 0x0e, 0x01, 0x0d, 0x13, 0x11, 0x00, 0x09, 0x06,
  0xfb, 0xff, 0xfe, 0x05, 0xf6, 0xff, 0xfa, 0x0f, 0x2b, 0xe8, 0xfc, 0xf7,
  0xfe, 0x06, 0x03, 0x01, 0xe8, 0x0e, 0x0b, 0x07, 0x35, 0xe9, 0xf8, 0xf2,
  0xf2, 0x08, 0x03, 0x04, 0x0c, 0x0b, 0x08, 0xf4, 0x06, 0x0d, 0x06, 0x04,
  0xfb, 0x01, 0xf3, 0xf1, 0xd1, 0x10, 0xfb, 0x08, 0x24, 0xec, 0x04, 0x05,
  0x18, 0x01, 0xf6, 0xf8, 0xe3, 0x06, 0x02, 0x0c, 0x09, 0xf3, 0x0a, 0x00,
  0x04, 0xfb, 0xfb, 0x03, 0x09, 0xff, 0xfb, 0xfe, 0x08, 0x03, 0xfb, 0x00,
  0x13, 0x02, 0x0a, 0xee, 0xfe, 0x09, 0x12, 0xfe, 0xf9, 0xfd, 0xf3, 0x0f,
  0x1f, 0x06, 0xf7, 0xec, 0xf5, 0xfe, 0x07, 0x0d, 0xf0, 0x08, 0x0f, 0xf8,
  0x05, 0x01, 0xf5, 0x08, 0xf6, 0x0c, 0x0b, 0xfc, 0xed, 0x00, 0xff, 0x0d,
  0x1f, 0xf9, 0xf3, 0xf2, 0xf5, 0xf5, 0xef, 0x1d, 0x02, 0x02, 0x06, 0xe7,
  0x22, 0x02, 0x0c, 0x07, 0x16, 0x03, 0x02, 0x03, 0xeb, 0x04, 0x02, 0x02,
  0xf5, 0x01, 0xfd, 0x08, 0x00, 0xf4, 0xfc, 0x20, 0x07, 0xfb, 0x03, 0x06,
  0x06, 0x00, 0xfd, 0x03, 0xed, 0xf1, 0xf5, 0x2d, 0x0c, 0x08, 0x0b, 0x04,
  0x00, 0xfa, 0x00, 0xeb, 0x0c, 0xfa, 0xf9, 0xf7, 0xe8, 0xf8, 0x00, 0xf4,
  0xfa, 0x0d, 0x0a, 0xf2, 0x01, 0xf9, 0xf2, 0x15, 0x02, 0xec, 0xf9, 0xf8,
  0x01, 0xfd, 0x0d, 0x0c, 0x08, 0x04, 0xf8, 0x27, 0xfa, 0xf8, 0xe1, 0x04,
  0x02, 0x00, 0x16, 0xfd, 0x00, 0x01, 0xff, 0xf4, 0x18, 0xfe, 0x04, 0xf9,
  0xfc, 0x0d, 0xf5, 0x07, 0xec, 0xf2, 0x00, 0x04, 0x16, 0xf4, 0xfe, 0xf4,
  0xf5, 0x0a, 0xf8, 0x0b, 0x10, 0xf7, 0x0e, 0x09, 0xfe, 0xe6, 0x03, 0x00,
  0x02, 0xfc, 0x1e, 0xf6, 0xec, 0x0e, 0x03, 0xfd, 0x09, 0xf7, 0xee, 0xf8,
  0x08, 0x11, 0xfd, 0xfd, 0xf8, 0x02, 0x11, 0x03, 0xfb, 0xeb, 0x04, 0x03,
  0xf5, 0xfd, 0x02, 0x07, 0x01, 0x06, 0xfa, 0xfb, 0xfd, 0x0b, 0x04, 0x03,
  0x16, 0xfd, 0xf7, 0xf2, 0xff, 0xf0, 0xfe, 0x04, 0xe9, 0x0a, 0x08, 0x10,
  0x1b, 0x0e, 0xf2, 0xf9, 0xf7, 0xf3, 0x06, 0x07, 0x05, 0x03, 0x09, 0xf7,
  0xf8, 0x1a, 0x05, 0x0f, 0x0e, 0x0a, 0x03, 0xf9, 0xf3, 0xfd, 0x0c, 0x0b,
  0x05, 0x0a, 0xf4, 0xfe, 0xe7, 0xf6, 0x07, 0xf2, 0x12, 0xfa, 0x01, 0x03,
  0x08, 0x07, 0x01, 0x05, 0xff, 0x04, 0x0c, 0xea, 0xf4, 0x05, 0x01, 0x0a,
  0xfc, 0x04, 0xfe, 0xf6, 0xf3, 0x00, 0x0e, 0x12, 0x09, 0xf8, 0x02, 0x0c,
  0x0a, 0xf5, 0xf9, 0xf5, 0xe5, 0xfd, 0x08, 0x07, 0x14, 0x00, 0xff, 0x04,
  0x08, 0xf9, 0x06, 0x03, 0x09, 0xfe, 0x03, 0xf9, 0x03, 0xf8, 0x06, 0x0e,
  0x05, 0x00, 0xf3, 0x02, 0xe6, 0x05, 0x06, 0xe9, 0x11, 0x01, 0x05, 0x06,
  0xf8, 0xfe, 0x02, 0xea, 0xf0, 0xf5, 0x0b, 0x12, 0xdc, 0xef, 0xf6, 0xf8,
  0x13, 0x07, 0xf9, 0xff, 0x0f, 0x01, 0xf5, 0x0a, 0x15, 0x10, 0x18, 0x0c,
  0x03, 0x03, 0xfa, 0xf9, 0xf3, 0xec, 0xef, 0xfc, 0x33, 0x0a, 0x0d, 0x12,
  0xf4, 0xfc, 0xfa, 0xf9, 0x07, 0x0f, 0x11, 0xf9, 0x01, 0xf9, 0xff, 0xfa,
  0x19, 0x0c, 0x11, 0xf7, 0x05, 0xfa, 0xf2, 0xf3, 0xf9, 0xf9, 0xf6, 0x0c,
  0x0c, 0xf8, 0xff, 0x09, 0xf0, 0x07, 0x13, 0x0e, 0xf7, 0xf0, 0x25, 0xf1,
  0x01, 0xeb, 0x19, 0xf2, 0xfa, 0x07, 0xf1, 0x00, 0x06, 0x06, 0xf1, 0x06,
  0x09, 0x15, 0xf5, 0x03, 0x07, 0x02, 0x01, 0xf8, 0xfd, 0xeb, 0x10, 0x05,
  0x1b, 0x0e, 0xe9, 0x0a, 0x05, 0xfe, 0x00, 0xf2, 0xf6, 0x16, 0x08, 0x14,
  0x09, 0xf4, 0x15, 0x0f, 0xfd, 0x1d, 0xf0, 0x18, 0xfd, 0x00, 0xfa, 0xfc,
  0x10, 0xf2, 0x03, 0xfd, 0x0c, 0x02, 0xe7, 0x0e, 0x10, 0x08, 0x0e, 0xfc,
  0x15, 0xf3, 0x01, 0x13, 0x10, 0xfc, 0x0b, 0x13, 0xfb, 0x01, 0xf9, 0xfa,
  0xfb, 0x02, 0xfe, 0xe0, 0x06, 0xfb, 0xee, 0x0e, 0x03, 0xf9, 0x0c, 0x0b,
  0x18, 0x09, 0x08, 0x07, 0x00, 0xfd, 0xe8, 0x05, 0x05, 0xf8, 0x16, 0x0b,
  0xfb, 0xfd, 0x02, 0x00, 0x00, 0x06, 0x05, 0x0f, 0xed, 0x07, 0xfe, 0xe9,
  0xff, 0x03, 0x13, 0xec, 0xf7, 0xf7, 0xe8, 0x07, 0xf2, 0x04, 0x03, 0x03,
  0xf2, 0xf4, 0x04, 0xf7, 0xf3, 0xf6, 0x1b, 0x07, 0xed, 0xfc, 0x08, 0x04,
  0x14, 0xf3, 0xff, 0x08, 0x1c, 0x06, 0xf9, 0x08, 0xfe, 0xff, 0x1b, 0xf8,
  0x06, 0x04, 0xfd, 0x0b, 0xf2, 0xfe, 0xe5, 0x04, 0xfc, 0x09, 0x13, 0x00,
  0x09, 0x05, 0xf7, 0x04, 0xeb, 0xff, 0x04, 0xec, 0xec, 0x0b, 0xf7, 0xfa,
  0x01, 0x06, 0xfd, 0xf3, 0x17, 0xfc, 0xf3, 0x06, 0xf2, 0x06, 0x01, 0x05,
  0xf0, 0x05, 0x07, 0x17, 0xfd, 0xf5, 0x0a, 0x02, 0xfa, 0x02, 0x00, 0xfb,
  0x01, 0x08, 0x02, 0xf8, 0xfd, 0x02, 0xfd, 0x03, 0x0b, 0xf8, 0xfb, 0x07,
  0xf9, 0x09, 0xff, 0x07, 0x07, 0x00, 0xf5, 0xf2, 0x01, 0xf9, 0x06, 0x08,
  0xf5, 0x0c, 0xfe, 0x14, 0x0f, 0x00, 0xf7, 0xef, 0xf0, 0xf8, 0x03, 0x11,
  0xf5, 0x05, 0x10, 0x0e, 0x07, 0xf5, 0x09, 0x09, 0x16, 0xf2, 0xfc, 0xec,
  0xf6, 0x11, 0x05, 0x17, 0xf5, 0x08, 0x0e, 0x4f, 0x14, 0x02, 0xfa, 0xf3,
  0xfc, 0x0a, 0x0d, 0xf7, 0xfa, 0x0c, 0x0a, 0x09, 0x0a, 0x04, 0xf3, 0x0a,
  0x08, 0xfc, 0xf1, 0x0b, 0xe9, 0xf8, 0x16, 0x01, 0xfb, 0xf5, 0xf7, 0xfa,
  0x10, 0x16, 0xfd, 0x1b, 0xf3, 0x00, 0x0a, 0x3b, 0x0c, 0xfb, 0xf8, 0xf1,
  0xfc, 0xff, 0x07, 0xfd, 0x0b, 0x19, 0x11, 0x24, 0x04, 0xfa, 0xf9, 0x01,
  0x14, 0xfa, 0xe6, 0xee, 0xe0, 0x0a, 0x17, 0x19, 0xf9, 0x1a, 0x0e, 0x07,
  0x04, 0x01, 0xe7, 0x04, 0x03, 0xfd, 0x09, 0x03, 0x08, 0xfd, 0xe5, 0x00,
  0xf4, 0xf6, 0x16, 0x04, 0xf9, 0xef, 0xfa, 0xfe, 0xfb, 0x13, 0x21, 0xfc,
  0x04, 0xfc, 0xe4, 0x01, 0x00, 0xf5, 0xf8, 0x10, 0xf9, 0x1a, 0x29, 0x01,
  0x03, 0xf5, 0xe8, 0xfc, 0x00, 0x12, 0x07, 0xff, 0xfe, 0x1f, 0x0b, 0x12,
  0xff, 0x13, 0x14, 0x01, 0xfc, 0xec, 0xef, 0x01, 0x01, 0x03, 0x00, 0x00,
  0x09, 0xfd, 0x04, 0x02, 0xf3, 0xfe, 0x04, 0x06, 0x02, 0xfb, 0xff, 0x08,
  0xff, 0x0b, 0x02, 0x0f, 0xff, 0x0a, 0x07, 0xf0, 0x03, 0xfb, 0xfd, 0xf2,
  0x17, 0xf2, 0xf7, 0xf9, 0xf5, 0x00, 0xfd, 0xf5, 0xf4, 0x12, 0x0e, 0x06,
  0x15, 0xfc, 0x02, 0xf5, 0xf2, 0x0e, 0x03, 0xf6, 0x10, 0xfb, 0x00, 0xf8,
  0xf9, 0x11, 0x15, 0x08, 0x06, 0xf9, 0x01, 0xf3, 0xeb, 0x08, 0x00, 0x08,
  0x0e, 0x01, 0x03, 0x03, 0xee, 0x06, 0xf6, 0x46, 0x07, 0xfb, 0xf7, 0xda,
  0xff, 0x04, 0xfc, 0xdc, 0x03, 0x04, 0xfe, 0xce, 0x04, 0xfd, 0xfc, 0x1e,
  0x07, 0xfb, 0x01, 0x1b, 0xef, 0x0d, 0xf8, 0x24, 0x0a, 0xfb, 0x04, 0xef,
  0x03, 0xf4, 0xfd, 0xf4, 0xf0, 0x0a, 0xf8, 0x7f, 0x0a, 0xfc, 0x0b, 0xd3,
  0xf7, 0x08, 0xfd, 0xf8, 0xfb, 0xfc, 0xf5, 0x08, 0xf8, 0x00, 0x00, 0x2a,
  0x16, 0xed, 0x07, 0x03, 0xf3, 0x09, 0xf9, 0x08, 0x6f, 0x22, 0x80, 0x8f,
  0x7c, 0x22, 0x80, 0x00, 0xe0, 0x8f, 0x20, 0x8b, 0x9e, 0x1e, 0x94, 0x9a,
  0xfc, 0x1a, 0x25, 0x23, 0xea, 0x9b, 0xd4, 0x1b, 0xb9, 0x23, 0x18, 0x13,
  0x66, 0x9e, 0xce, 0x1a, 0x09, 0xf7, 0x33, 0x02, 0x28, 0x07, 0x32, 0x0d,
  0x2e, 0x15, 0x81, 0x02, 0x19, 0x10, 0x43, 0x1a, 0x2c, 0xe9, 0x2b, 0x12,
  0xd0, 0xcd, 0x1c, 0xf8, 0xc8, 0xc7, 0xf8, 0xf2, 0xd2, 0xd0, 0xf1, 0xf0,
  0xc8, 0xc8, 0xe1, 0xf6, 0xd1, 0xcd, 0xfa, 0xf0, 0xda, 0x10, 0x1d, 0x29,
  0xef, 0x00, 0x0f, 0x39, 0xef, 0x10, 0x0c, 0x23, 0xf0, 0xd8, 0x24, 0x25,
  0xec, 0x13, 0x1a, 0xd9, 0xc1, 0x05, 0x00, 0xeb, 0x23, 0xf6, 0xda, 0x00,
  0x2e, 0x29, 0x28, 0xf4, 0x20, 0xe9, 0x0e, 0xfb, 0x00, 0xda, 0xf0, 0x0d,
  0x87, 0x8a, 0x19, 0x06, 0xaf, 0x81, 0xba, 0x81, 0x9c, 0x8b, 0x00, 0x00,
  0x46, 0xf9, 0xff, 0xff, 0x04, 0x00, 0x00, 0x00, 0x98, 0x03, 0x00, 0x00,
  0x6e, 0x4d, 0x43, 0x64, 0x1b, 0x3f, 0x93, 0x1c, 0x44, 0x03, 0x00, 0x00,
  0x00, 0x00, 0x00, 0x00, 0x44, 0x03, 0x00, 0x00, 0x08, 0x00, 0x00, 0x00,
  0x98, 0x03, 0x00, 0x00, 0x34, 0x21, 0x00, 0x00, 0x01, 0x00, 0x00, 0x00,
  0x00, 0x08, 0x00, 0x00, 0x00, 0x00, 0x00, 0x00, 0x01, 0x00, 0x00, 0x00,
  0x01, 0x00, 0x00, 0x00, 0x0a, 0x00, 0x00, 0x00, 0x9a, 0x00, 0x00, 0x00,
  0x00, 0x00, 0x00, 0x00, 0x03, 0x03, 0x04, 0x00, 0x01, 0x00, 0x02, 0x42,
  0x00, 0x04, 0x00, 0x00, 0x00, 0x00, 0x00, 0x00, 0x00, 0x00, 0x00, 0x00,
  0x80, 0x00, 0x00, 0x00, 0x06, 0x00, 0x00, 0x00, 0x08, 0x00, 0x00, 0x00,
  0x80, 0xff, 0xff, 0xff, 0x10, 0x01, 0x09, 0x40, 0x00, 0x00, 0x00, 0x00,
  0x05, 0x42, 0x03, 0x05, 0x04, 0x04, 0x01, 0x01, 0x01, 0x00, 0x02, 0x01,
  0x00, 0x00, 0x00, 0x00, 0x00, 0x04, 0x00, 0x00, 0x48, 0x00, 0x00, 0x00,
  0x08, 0x00, 0x00, 0x00, 0x38, 0x00, 0x00, 0x00, 0x01, 0x00, 0x00, 0x00,
  0x01, 0x00, 0x00, 0x00, 0x80, 0x00, 0x00, 0x00, 0x08, 0x00, 0x00, 0x00,
  0x08, 0x00, 0x00, 0x00, 0x01, 0x00, 0x00, 0x00, 0x01, 0x00, 0x00, 0x00,
  0x80, 0x00, 0x00, 0x00, 0x08, 0x00, 0x00, 0x00, 0x01, 0x00, 0x00, 0x00,
  0x03, 0x00, 0x00, 0x00, 0x01, 0x00, 0x00, 0x00, 0x01, 0x00, 0x00, 0x00,
  0x00, 0x00, 0x00, 0x00, 0x01, 0x00, 0x00, 0x00, 0x00, 0x00, 0x00, 0x00,
  0x01, 0x00, 0x00, 0x00, 0x01, 0x00, 0x00, 0x00, 0x01, 0x00, 0x00, 0x00,
  0x10, 0x01, 0x0f, 0x07, 0x00, 0x00, 0x00, 0x00, 0x00, 0x00, 0x00, 0x00,
  0x01, 0x00, 0x00, 0x00, 0x01, 0x00, 0x00, 0x00, 0x80, 0xff, 0xff, 0xff,
  0x30, 0x80, 0x00, 0x00, 0x00, 0x00, 0x00, 0x00, 0x00, 0x00, 0x00, 0x00,
  0x00, 0x00, 0x00, 0x00, 0x00, 0x00, 0x00, 0x00, 0x05, 0x01, 0x03, 0x02,
  0x04, 0x04, 0x02, 0x33, 0x00, 0x04, 0x00, 0x00, 0x00, 0x00, 0x00, 0x00,
  0x01, 0x00, 0x00, 0x00, 0x40, 0x00, 0x00, 0x00, 0x01, 0x00, 0x00, 0x00,
  0x08, 0x00, 0x00, 0x00, 0x08, 0x00, 0x00, 0x00, 0x01, 0x00, 0x00, 0x00,
  0x80, 0x00, 0x00, 0x00, 0x01, 0x00, 0x00, 0x00, 0x08, 0x00, 0x00, 0x00,
  0x02, 0x00, 0x00, 0x00, 0x01, 0x00, 0x00, 0x00, 0x02, 0x00, 0x00, 0x00,
  0x01, 0x00, 0x00, 0x00, 0x00, 0x00, 0x00, 0x00, 0x00, 0x00, 0x00, 0x00,
  0x00, 0x00, 0x00, 0x00, 0x00, 0x00, 0x00, 0x00, 0x10, 0x01, 0x09, 0x40,
  0x00, 0x00, 0x00, 0x00, 0x05, 0x33, 0x03, 0x05, 0x04, 0x04, 0x01, 0x01,
  0x01, 0x00, 0x02, 0x01, 0x00, 0x00, 0x00, 0x00, 0x00, 0x04, 0x00, 0x00,
  0x68, 0x01, 0x00, 0x00, 0x08, 0x01, 0x00, 0x00, 0x50, 0x01, 0x00, 0x00,
  0x01, 0x00, 0x00, 0x00, 0x01, 0x00, 0x00, 0x00, 0x40, 0x00, 0x00, 0x00,
  0x0c, 0x00, 0x00, 0x00, 0x0c, 0x00, 0x00, 0x00, 0x01, 0x00, 0x00, 0x00,
  0x01, 0x00, 0x00, 0x00, 0x40, 0x00, 0x00, 0x00, 0x08, 0x00, 0x00, 0x00,
  0x01, 0x00, 0x00, 0x00, 0x03, 0x00, 0x00, 0x00, 0x01, 0x00, 0x00, 0x00,
  0x01, 0x00, 0x00, 0x00, 0x00, 0x00, 0x00, 0x00, 0x01, 0x00, 0x00, 0x00,
  0x00, 0x00, 0x00, 0x00, 0x01, 0x00, 0x00, 0x00, 0x01, 0x00, 0x00, 0x00,
  0x01, 0x00, 0x00, 0x00, 0x10, 0x01, 0x0f, 0x07, 0x00, 0x00, 0x00, 0x00,
  0x00, 0x00, 0x00, 0x00, 0x01, 0x00, 0x00, 0x00, 0x01, 0x00, 0x00, 0x00,
  0x80, 0xff, 0xff, 0xff, 0x30, 0x24, 0x00, 0x00, 0x00, 0x00, 0x00, 0x00,
  0x00, 0x00, 0x00, 0x00, 0x00, 0x00, 0x00, 0x00, 0x00, 0x00, 0x00, 0x00,
  0x05, 0x01, 0x04, 0x01, 0x08, 0x00, 0x00, 0x00, 0x04, 0x04, 0x04, 0x04,
  0x04, 0x04, 0x04, 0x04, 0x00, 0x01, 0x02, 0x03, 0x04, 0x0d, 0x1d, 0x1e,
  0x00, 0x03, 0x00, 0x00, 0x00, 0x00, 0x00, 0x00, 0xe8, 0x02, 0x00, 0x00,
  0x88, 0x02, 0x00, 0x00, 0xd0, 0x02, 0x00, 0x00, 0x0c, 0x00, 0x00, 0x00,
  0x24, 0x00, 0x00, 0x00, 0x30, 0x80, 0x00, 0x00, 0x05, 0x01, 0x04, 0x01,
  0x07, 0x00, 0x00, 0x00, 0x04, 0x04, 0x04, 0x04, 0x04, 0x04, 0x04, 0x00,
  0x00, 0x01, 0x02, 0x03, 0x04, 0x1d, 0x1e, 0x00, 0x00, 0x00, 0x00, 0x00,
  0x00, 0x03, 0x00, 0x00, 0xf8, 0x04, 0x00, 0x00, 0x98, 0x04, 0x00, 0x00,
  0xe0, 0x04, 0x00, 0x00, 0x80, 0xff, 0xff, 0xff, 0x30, 0xde, 0x00, 0x00,
  0x00, 0x00, 0x00, 0x00, 0x05, 0x01, 0x04, 0x01, 0x07, 0x00, 0x00, 0x00,
  0x04, 0x04, 0x04, 0x04, 0x04, 0x04, 0x04, 0x00, 0x00, 0x01, 0x02, 0x03,
  0x04, 0x1d, 0x1e, 0x00, 0x00, 0x03, 0x00, 0x00, 0x00, 0x00, 0x00, 0x00,
  0x08, 0x07, 0x00, 0x00, 0xa8, 0x06, 0x00, 0x00, 0xf0, 0x06, 0x00, 0x00,
  0xde, 0xff, 0xff, 0xff, 0x30, 0x80, 0x00, 0x00, 0x00, 0x00, 0x00, 0x00,
  0x05, 0x01, 0x03, 0x02, 0x04, 0x04, 0x02, 0x33, 0x00, 0x00, 0x00, 0x00,
  0x00, 0x03, 0x00, 0x00, 0x01, 0x00, 0x00, 0x00, 0x20, 0x00, 0x00, 0x00,
  0x01, 0x00, 0x00, 0x00, 0x0c, 0x00, 0x00, 0x00, 0x0c, 0x00, 0x00, 0x00,
  0x01, 0x00, 0x00, 0x00, 0x40, 0x00, 0x00, 0x00, 0x01, 0x00, 0x00, 0x00,
  0x0c, 0x00, 0x00, 0x00, 0x02, 0x00, 0x00, 0x00, 0x01, 0x00, 0x00, 0x00,
  0x02, 0x00, 0x00, 0x00, 0x01, 0x00, 0x00, 0x00, 0x00, 0x00, 0x00, 0x00,
  0x00, 0x00, 0x00, 0x00, 0x00, 0x00, 0x00, 0x00, 0x00, 0x00, 0x00, 0x00,
  0x10, 0x01, 0x09, 0x40, 0x00, 0x00, 0x00, 0x00, 0x05, 0x33, 0x03, 0x05,
  0x04, 0x04, 0x01, 0x01, 0x09, 0x00, 0x02, 0x41, 0x80, 0x01, 0x00, 0x00,
  0x00, 0x00, 0x00, 0x00, 0xb8, 0x08, 0x00, 0x00, 0xb8, 0x20, 0x00, 0x00,
  0x00, 0x00, 0x00, 0x00, 0x01, 0x00, 0x00, 0x00, 0x10, 0x00, 0x00, 0x00,
  0x10, 0x00, 0x00, 0x00, 0x80, 0x01, 0x00, 0x00, 0x00, 0x00, 0x00, 0x00,
  0x00, 0x00, 0x00, 0x00, 0x10, 0x01, 0x0f, 0x07, 0x30, 0xdc, 0x45, 0x46,
  0x00, 0x00, 0x00, 0x00, 0x05, 0x41, 0x03, 0x05, 0x02, 0x04, 0x01, 0x01,
  0x09, 0x00, 0x04, 0x41, 0x08, 0x00, 0x00, 0x00, 0x04, 0x04, 0x04, 0x04,
  0x04, 0x04, 0x04, 0x04, 0x00, 0x01, 0x02, 0x03, 0x06, 0x07, 0x08, 0x0c,
  0x00, 0x00, 0x00, 0x00, 0x80, 0x01, 0x00, 0x00, 0xd8, 0x20, 0x00, 0x00,
  0x28, 0x21, 0x00, 0x00, 0x05, 0x00, 0x00, 0x00, 0x05, 0x00, 0x00, 0x00,
  0x10, 0x00, 0x00, 0x00, 0x30, 0xa1, 0x64, 0x42, 0x05, 0x41, 0x01, 0x00,
  0x00, 0x00, 0x00, 0x00, 0x00, 0x00, 0x00, 0x00, 0x00, 0x00, 0x00, 0x00,
  0x00, 0x03, 0x00, 0x00, 0x05, 0x00, 0x00, 0x00, 0x00, 0x00, 0x00, 0x00,
  0x00, 0x00, 0x00, 0x00, 0x00, 0x00, 0x00, 0x00, 0xf6, 0xfc, 0xff, 0xff,
  0x04, 0x00, 0x00, 0x00, 0x01, 0x00, 0x00, 0x00, 0x00, 0x00, 0x00, 0x00,
  0x06, 0xfd, 0xff, 0xff, 0x04, 0x00, 0x00, 0x00, 0xac, 0x00, 0x00, 0x00,
  0x01, 0x00, 0x00, 0x00, 0xa6, 0x16, 0x91, 0x13, 0xf7, 0x93, 0x5b, 0x8f,
  0x9e, 0x93, 0x68, 0x93, 0x00, 0x00, 0x00, 0x00, 0x3e, 0x16, 0x3a, 0x87,
  0x17, 0x00, 0xd3, 0x96, 0xd1, 0x06, 0xb0, 0x97, 0x00, 0x00, 0x00, 0x00,
  0x24, 0x13, 0x51, 0x13, 0x49, 0x13, 0x03, 0x96, 0x7a, 0x13, 0x9c, 0x97,
  0x00, 0x00, 0x00, 0x00, 0x15, 0x47, 0x1c, 0x4b, 0x65, 0x47, 0x0f, 0x46,
  0x25, 0x47, 0x45, 0x4b, 0xf9, 0x25, 0xf9, 0x25, 0xe6, 0x00, 0x00, 0x00,
  0x81, 0x00, 0x00, 0x00, 0x7f, 0x00, 0x00, 0x00, 0x81, 0x00, 0x00, 0x00,
  0x7f, 0x00, 0x00, 0x00, 0x81, 0x00, 0x00, 0x00, 0x00, 0x00, 0x00, 0x00,
  0x00, 0x00, 0x00, 0x00, 0x7f, 0x00, 0x00, 0x00, 0x25, 0x00, 0x00, 0x00,
  0xf6, 0x00, 0x00, 0x00, 0x07, 0x00, 0x00, 0x00, 0xd7, 0x00, 0x00, 0x00,
  0x98, 0x00, 0x00, 0x00, 0x00, 0x00, 0x00, 0x00, 0x00, 0x00, 0x00, 0x00,
  0x2b, 0x00, 0x00, 0x00, 0x89, 0x00, 0x00, 0x00, 0x97, 0x00, 0x00, 0x00,
  0xcc, 0x00, 0x00, 0x00, 0x9c, 0x00, 0x00, 0x00, 0xfb, 0x00, 0x00, 0x00,
  0x00, 0x00, 0x00, 0x00, 0x00, 0x00, 0x00, 0x00, 0x01, 0x01, 0x01, 0x01,
  0x00, 0x01, 0x00, 0x00, 0x00, 0x00, 0x00, 0x00, 0x00, 0x00, 0x00, 0x00,
  0xc6, 0xfd, 0xff, 0xff, 0x04, 0x00, 0x00, 0x00, 0x48, 0x01, 0x00, 0x00,
  0x6e, 0x4d, 0x43, 0x64, 0x1b, 0x3f, 0x93, 0x1c, 0xf2, 0x00, 0x00, 0x00,
  0x00, 0x00, 0x00, 0x00, 0xf2, 0x00, 0x00, 0x00, 0x08, 0x00, 0x00, 0x00,
  0x48, 0x01, 0x00, 0x00, 0xac, 0x00, 0x00, 0x00, 0x01, 0x00, 0x00, 0x00,
  0x00, 0x0c, 0x00, 0x00, 0x00, 0x00, 0x00, 0x00, 0x01, 0x00, 0x00, 0x00,
  0x01, 0x00, 0x00, 0x00, 0x03, 0x00, 0x00, 0x00, 0x44, 0x00, 0x00, 0x00,
  0x00, 0x00, 0x00, 0x00, 0x03, 0x03, 0x04, 0x00, 0x01, 0x00, 0x02, 0x42,
  0x00, 0x08, 0x00, 0x00, 0x00, 0x00, 0x00, 0x00, 0x00, 0x00, 0x00, 0x00,
  0x00, 0x01, 0x00, 0x00, 0x01, 0x00, 0x00, 0x00, 0x04, 0x00, 0x00, 0x00,
  0x80, 0xff, 0xff, 0xff, 0x10, 0x01, 0x09, 0x40, 0x00, 0x00, 0x00, 0x00,
  0x05, 0x42, 0x03, 0x05, 0x04, 0x04, 0x01, 0x01, 0x01, 0x00, 0x02, 0x01,
  0x00, 0x00, 0x00, 0x00, 0x00, 0x08, 0x00, 0x00, 0x44, 0x00, 0x00, 0x00,
  0x04, 0x00, 0x00, 0x00, 0x34, 0x00, 0x00, 0x00, 0x01, 0x00, 0x00, 0x00,
  0x01, 0x00, 0x00, 0x00, 0x00, 0x01, 0x00, 0x00, 0x08, 0x00, 0x00, 0x00,
  0x08, 0x00, 0x00, 0x00, 0x01, 0x00, 0x00, 0x00, 0x01, 0x00, 0x00, 0x00,
  0x00, 0x01, 0x00, 0x00, 0x04, 0x00, 0x00, 0x00, 0x01, 0x00, 0x00, 0x00,
  0x03, 0x00, 0x00, 0x00, 0x01, 0x00, 0x00, 0x00, 0x01, 0x00, 0x00, 0x00,
  0x00, 0x00, 0x00, 0x00, 0x01, 0x00, 0x00, 0x00, 0x00, 0x00, 0x00, 0x00,
  0x01, 0x00, 0x00, 0x00, 0x01, 0x00, 0x00, 0x00, 0x01, 0x00, 0x00, 0x00,
  0x10, 0x01, 0x0f, 0x07, 0x00, 0x00, 0x00, 0x00, 0x00, 0x00, 0x00, 0x00,
  0x01, 0x00, 0x00, 0x00, 0x01, 0x00, 0x00, 0x00, 0x80, 0xff, 0xff, 0xff,
  0x30, 0x80, 0x00, 0x00, 0x00, 0x00, 0x00, 0x00, 0x00, 0x00, 0x00, 0x00,
  0x00, 0x00, 0x00, 0x00, 0x00, 0x00, 0x00, 0x00, 0x05, 0x01, 0x03, 0x03,
  0x02, 0x04, 0x01, 0x00, 0x02, 0x4b, 0x00, 0x00, 0x00, 0x00, 0x00, 0x00,
  0x00, 0x00, 0xa4, 0x00, 0x00, 0x00, 0x00, 0x01, 0x00, 0x00, 0x08, 0x00,
  0x00, 0x00, 0x06, 0x00, 0x00, 0x00, 0x10, 0x01, 0x01, 0x00, 0x20, 0x00,
  0x01, 0x00, 0x05, 0x4b, 0x01, 0x00, 0x00, 0x00, 0x00, 0x00, 0x00, 0x00,
  0x00, 0x00, 0x00, 0x00, 0x00, 0x00, 0x00, 0x00, 0x00, 0x01, 0x00, 0x00,
  0x00, 0x06, 0x00, 0x00, 0x00, 0x00, 0x00, 0x00, 0x00, 0x00, 0x00, 0x00,
  0x00, 0x00, 0x00, 0x00, 0x04, 0x00, 0x04, 0x00, 0x04, 0x00, 0x00, 0x00,
  0x62, 0x00, 0x00, 0x00, 0x4d, 0x4c, 0x49, 0x52, 0x20, 0x43, 0x6f, 0x6e,
  0x76, 0x65, 0x72, 0x74, 0x65, 0x64, 0x2e, 0x0a, 0x43, 0x6f, 0x6e, 0x76,
  0x65, 0x72, 0x74, 0x65, 0x64, 0x20, 0x77, 0x69, 0x74, 0x68, 0x20, 0x65,
  0x49, 0x51, 0x20, 0x6e, 0x65, 0x75, 0x74, 0x72, 0x6f, 0x6e, 0x2d, 0x63,
  0x6f, 0x6e, 0x76, 0x65, 0x72, 0x74, 0x65, 0x72, 0x20, 0x31, 0x2e, 0x32,
  0x2e, 0x30, 0x2b, 0x30, 0x58, 0x31, 0x63, 0x39, 0x33, 0x33, 0x66, 0x31,
  0x62, 0x20, 0x66, 0x6f, 0x72, 0x20, 0x4e, 0x58, 0x50, 0x20, 0x4d, 0x43,
  0x58, 0x20, 0x4e, 0x39, 0x34, 0x78, 0x20, 0x4d, 0x43, 0x55, 0x20, 0x74,
  0x61, 0x72, 0x67, 0x65, 0x74, 0x2e, 0x00, 0x00, 0x01, 0x00, 0x00, 0x00,
  0x14, 0x00, 0x00, 0x00, 0x00, 0x00, 0x0e, 0x00, 0x18, 0x00, 0x04, 0x00,
  0x08, 0x00, 0x0c, 0x00, 0x10, 0x00, 0x14, 0x00, 0x0e, 0x00, 0x00, 0x00,
  0x9c, 0x01, 0x00, 0x00, 0x90, 0x01, 0x00, 0x00, 0x84, 0x01, 0x00, 0x00,
  0x14, 0x00, 0x00, 0x00, 0x04, 0x00, 0x00, 0x00, 0x04, 0x00, 0x00, 0x00,
  0x6d, 0x61, 0x69, 0x6e, 0x00, 0x00, 0x00, 0x00, 0x04, 0x00, 0x00, 0x00,
  0x10, 0x01, 0x00, 0x00, 0xac, 0x00, 0x00, 0x00, 0x40, 0x00, 0x00, 0x00,
  0x04, 0x00, 0x00, 0x00, 0x6e, 0xff, 0xff, 0xff, 0x00, 0x00, 0x00, 0x09,
  0x02, 0x00, 0x00, 0x00, 0x24, 0x00, 0x00, 0x00, 0x18, 0x00, 0x00, 0x00,
  0x0c, 0x00, 0x00, 0x00, 0x00, 0x00, 0x06, 0x00, 0x08, 0x00, 0x04, 0x00,
  0x06, 0x00, 0x00, 0x00, 0x00, 0x00, 0x80, 0x3f, 0x01, 0x00, 0x00, 0x00,
  0x04, 0x00, 0x00, 0x00, 0x01, 0x00, 0x00, 0x00, 0x03, 0x00, 0x00, 0x00,
  0x48, 0xff, 0xff, 0xff, 0x40, 0x00, 0x00, 0x00, 0x30, 0x00, 0x00, 0x00,
  0x04, 0x00, 0x00, 0x00, 0x21, 0x00, 0x00, 0x00, 0x73, 0x75, 0x62, 0x67,
  0x72, 0x61, 0x70, 0x68, 0x00, 0x0c, 0x73, 0x75, 0x62, 0x67, 0x72, 0x61,
  0x70, 0x68, 0x5f, 0x30, 0x31, 0x35, 0x00, 0x01, 0x18, 0x01, 0x01, 0x01,
  0x12, 0x14, 0x02, 0x24, 0x01, 0x00, 0x00, 0x00, 0x02, 0x00, 0x00, 0x00,
  0x03, 0x00, 0x00, 0x00, 0x09, 0x00, 0x00, 0x00, 0x04, 0x00, 0x00, 0x00,
  0x02, 0x00, 0x00, 0x00, 0x0a, 0x00, 0x00, 0x00, 0x0b, 0x00, 0x00, 0x00,
  0x0c, 0x00, 0x00, 0x00, 0x00, 0x00, 0x0e, 0x00, 0x1a, 0x00, 0x08, 0x00,
  0x0c, 0x00, 0x10, 0x00, 0x07, 0x00, 0x14, 0x00, 0x0e, 0x00, 0x00, 0x00,
  0x00, 0x00, 0x00, 0x05, 0x01, 0x00, 0x00, 0x00, 0x3c, 0x00, 0x00, 0x00,
  0x30, 0x00, 0x00, 0x00, 0x14, 0x00, 0x00, 0x00, 0x00, 0x00, 0x0e, 0x00,
  0x18, 0x00, 0x07, 0x00, 0x08, 0x00, 0x0c, 0x00, 0x10, 0x00, 0x14, 0x00,
  0x0e, 0x00, 0x00, 0x00, 0x00, 0x00, 0x00, 0x01, 0x01, 0x00, 0x00, 0x00,
  0x02, 0x00, 0x00, 0x00, 0x01, 0x00, 0x00, 0x00, 0x02, 0x00, 0x00, 0x00,
  0x01, 0x00, 0x00, 0x00, 0x02, 0x00, 0x00, 0x00, 0x01, 0x00, 0x00, 0x00,
  0x01, 0x00, 0x00, 0x00, 0x10, 0x00, 0x10, 0x00, 0x00, 0x00, 0x04, 0x00,
  0x08, 0x00, 0x00, 0x00, 0x00, 0x00, 0x0c, 0x00, 0x10, 0x00, 0x00, 0x00,
  0x40, 0x00, 0x00, 0x00, 0x30, 0x00, 0x00, 0x00, 0x04, 0x00, 0x00, 0x00,
  0x21, 0x00, 0x00, 0x00, 0x73, 0x75, 0x62, 0x67, 0x72, 0x61, 0x70, 0x68,
  0x00, 0x0c, 0x73, 0x75, 0x62, 0x67, 0x72, 0x61, 0x70, 0x68, 0x5f, 0x30,
  0x31, 0x34, 0x00, 0x01, 0x18, 0x01, 0x01, 0x01, 0x12, 0x14, 0x02, 0x24,
  0x01, 0x00, 0x00, 0x00, 0x02, 0x00, 0x00, 0x00, 0x01, 0x00, 0x00, 0x00,
  0x05, 0x00, 0x00, 0x00, 0x04, 0x00, 0x00, 0x00, 0x00, 0x00, 0x00, 0x00,
  0x06, 0x00, 0x00, 0x00, 0x07, 0x00, 0x00, 0x00, 0x08, 0x00, 0x00, 0x00,
  0x01, 0x00, 0x00, 0x00, 0x04, 0x00, 0x00, 0x00, 0x01, 0x00, 0x00, 0x00,
  0x00, 0x00, 0x00, 0x00, 0x0d, 0x00, 0x00, 0x00, 0xc0, 0x03, 0x00, 0x00,
  0x30, 0x03, 0x00, 0x00, 0xbc, 0x02, 0x00, 0x00, 0x20, 0x02, 0x00, 0x00,
  0xbc, 0x01, 0x00, 0x00, 0x8c, 0x01, 0x00, 0x00, 0x48, 0x01, 0x00, 0x00,
  0x08, 0x01, 0x00, 0x00, 0xd4, 0x00, 0x00, 0x00, 0xa4, 0x00, 0x00, 0x00,
  0x6c, 0x00, 0x00, 0x00, 0x38, 0x00, 0x00, 0x00, 0x04, 0x00, 0x00, 0x00,
  0xe0, 0xfe, 0xff, 0xff, 0x00, 0x00, 0x00, 0x03, 0x20, 0x00, 0x00, 0x00,
  0x03, 0x00, 0x00, 0x00, 0x04, 0x00, 0x00, 0x00, 0x0e, 0x00, 0x00, 0x00,
  0x4e, 0x65, 0x75, 0x74, 0x72, 0x6f, 0x6e, 0x4b, 0x65, 0x72, 0x6e, 0x65,
  0x6c, 0x73, 0x00, 0x00, 0x01, 0x00, 0x00, 0x00, 0x01, 0x00, 0x00, 0x00,
  0x10, 0xff, 0xff, 0xff, 0x00, 0x00, 0x00, 0x03, 0x20, 0x00, 0x00, 0x00,
  0x05, 0x00, 0x00, 0x00, 0x04, 0x00, 0x00, 0x00, 0x0e, 0x00, 0x00, 0x00,
  0x4e, 0x65, 0x75, 0x74, 0x72, 0x6f, 0x6e, 0x57, 0x65, 0x69, 0x67, 0x68,
  0x74, 0x73, 0x00, 0x00, 0x01, 0x00, 0x00, 0x00, 0x34, 0x21, 0x00, 0x00,
  0x40, 0xff, 0xff, 0xff, 0x00, 0x00, 0x00, 0x03, 0x24, 0x00, 0x00, 0x00,
  0x04, 0x00, 0x00, 0x00, 0x04, 0x00, 0x00, 0x00, 0x10, 0x00, 0x00, 0x00,
  0x4e, 0x65, 0x75, 0x74, 0x72, 0x6f, 0x6e, 0x4d, 0x69, 0x63, 0x72, 0x6f,
  0x63, 0x6f, 0x64, 0x65, 0x00, 0x00, 0x00, 0x00, 0x01, 0x00, 0x00, 0x00,
  0x98, 0x03, 0x00, 0x00, 0x34, 0xff, 0xff, 0xff, 0x00, 0x00, 0x00, 0x03,
  0x1c, 0x00, 0x00, 0x00, 0x04, 0x00, 0x00, 0x00, 0x0e, 0x00, 0x00, 0x00,
  0x4e, 0x65, 0x75, 0x74, 0x72, 0x6f, 0x6e, 0x53, 0x63, 0x72, 0x61, 0x74,
  0x63, 0x68, 0x00, 0x00, 0x01, 0x00, 0x00, 0x00, 0x00, 0x08, 0x00, 0x00,
  0xa0, 0xff, 0xff, 0xff, 0x00, 0x00, 0x00, 0x03, 0x20, 0x00, 0x00, 0x00,
  0x03, 0x00, 0x00, 0x00, 0x04, 0x00, 0x00, 0x00, 0x0e, 0x00, 0x00, 0x00,
  0x4e, 0x65, 0x75, 0x74, 0x72, 0x6f, 0x6e, 0x4b, 0x65, 0x72, 0x6e, 0x65,
  0x6c, 0x73, 0x00, 0x00, 0x01, 0x00, 0x00, 0x00, 0x01, 0x00, 0x00, 0x00,
  0xd0, 0xff, 0xff, 0xff, 0x00, 0x00, 0x00, 0x03, 0x20, 0x00, 0x00, 0x00,
  0x02, 0x00, 0x00, 0x00, 0x04, 0x00, 0x00, 0x00, 0x0e, 0x00, 0x00, 0x00,
  0x4e, 0x65, 0x75, 0x74, 0x72, 0x6f, 0x6e, 0x57, 0x65, 0x69, 0x67, 0x68,
  0x74, 0x73, 0x00, 0x00, 0x01, 0x00, 0x00, 0x00, 0xac, 0x00, 0x00, 0x00,
  0x0c, 0x00, 0x14, 0x00, 0x08, 0x00, 0x07, 0x00, 0x0c, 0x00, 0x10, 0x00,
  0x0c, 0x00, 0x00, 0x00, 0x00, 0x00, 0x00, 0x03, 0x24, 0x00, 0x00, 0x00,
  0x01, 0x00, 0x00, 0x00, 0x04, 0x00, 0x00, 0x00, 0x10, 0x00, 0x00, 0x00,
  0x4e, 0x65, 0x75, 0x74, 0x72, 0x6f, 0x6e, 0x4d, 0x69, 0x63, 0x72, 0x6f,
  0x63, 0x6f, 0x64, 0x65, 0x00, 0x00, 0x00, 0x00, 0x01, 0x00, 0x00, 0x00,
  0x48, 0x01, 0x00, 0x00, 0x0c, 0x00, 0x10, 0x00, 0x08, 0x00, 0x07, 0x00,
  0x00, 0x00, 0x0c, 0x00, 0x0c, 0x00, 0x00, 0x00, 0x00, 0x00, 0x00, 0x03,
  0x1c, 0x00, 0x00, 0x00, 0x04, 0x00, 0x00, 0x00, 0x0e, 0x00, 0x00, 0x00,
  0x4e, 0x65, 0x75, 0x74, 0x72, 0x6f, 0x6e, 0x53, 0x63, 0x72, 0x61, 0x74,
  0x63, 0x68, 0x00, 0x00, 0x01, 0x00, 0x00, 0x00, 0x00, 0x0c, 0x00, 0x00,
  0x22, 0xfe, 0xff, 0xff, 0x00, 0x00, 0x09, 0x01, 0x4c, 0x00, 0x00, 0x00,
  0x28, 0x00, 0x00, 0x00, 0x04, 0x00, 0x00, 0x00, 0x0c, 0xfe, 0xff, 0xff,
  0x14, 0x00, 0x00, 0x00, 0x04, 0x00, 0x00, 0x00, 0x01, 0x00, 0x00, 0x00,
  0x80, 0xff, 0xff, 0xff, 0xff, 0xff, 0xff, 0xff, 0x01, 0x00, 0x00, 0x00,
  0x00, 0x00, 0x80, 0x3b, 0x19, 0x00, 0x00, 0x00, 0x53, 0x74, 0x61, 0x74,
  0x65, 0x66, 0x75, 0x6c, 0x50, 0x61, 0x72, 0x74, 0x69, 0x74, 0x69, 0x6f,
  0x6e, 0x65, 0x64, 0x43, 0x61, 0x6c, 0x6c, 0x3a, 0x30, 0x00, 0x00, 0x00,
  0x02, 0x00, 0x00, 0x00, 0x01, 0x00, 0x00, 0x00, 0x05, 0x00, 0x00, 0x00,
  0x82, 0xfe, 0xff, 0xff, 0x00, 0x00, 0x09, 0x01, 0x84, 0x00, 0x00, 0x00,
  0x28, 0x00, 0x00, 0x00, 0x04, 0x00, 0x00, 0x00, 0x6c, 0xfe, 0xff, 0xff,
  0x14, 0x00, 0x00, 0x00, 0x04, 0x00, 0x00, 0x00, 0x01, 0x00, 0x00, 0x00,
  0xa1, 0xff, 0xff, 0xff, 0xff, 0xff, 0xff, 0xff, 0x01, 0x00, 0x00, 0x00,
  0x04, 0x12, 0x7b, 0x3e, 0x50, 0x00, 0x00, 0x00, 0x6d, 0x6f, 0x64, 0x65,
  0x6c, 0x2f, 0x6d, 0x6f, 0x64, 0x65, 0x6c, 0x2f, 0x64, 0x65, 0x6e, 0x73,
  0x65, 0x2f, 0x42, 0x69, 0x61, 0x73, 0x41, 0x64, 0x64, 0x3b, 0x6d, 0x6f,
  0x64, 0x65, 0x6c, 0x2f, 0x6d, 0x6f, 0x64, 0x65, 0x6c, 0x2f, 0x64, 0x65,
  0x6e, 0x73, 0x65, 0x5f, 0x31, 0x2f, 0x4d, 0x61, 0x74, 0x4d, 0x75, 0x6c,
  0x3b, 0x6d, 0x6f, 0x64, 0x65, 0x6c, 0x2f, 0x6d, 0x6f, 0x64, 0x65, 0x6c,
  0x2f, 0x64, 0x65, 0x6e, 0x73, 0x65, 0x5f, 0x31, 0x2f, 0x42, 0x69, 0x61,
  0x73, 0x41, 0x64, 0x64, 0x00, 0x00, 0x00, 0x00, 0x02, 0x00, 0x00, 0x00,
  0x01, 0x00, 0x00, 0x00, 0x05, 0x00, 0x00, 0x00, 0x1a, 0xff, 0xff, 0xff,
  0x00, 0x00, 0x09, 0x01, 0x54, 0x00, 0x00, 0x00, 0x28, 0x00, 0x00, 0x00,
  0x04, 0x00, 0x00, 0x00, 0x04, 0xff, 0xff, 0xff, 0x14, 0x00, 0x00, 0x00,
  0x04, 0x00, 0x00, 0x00, 0x01, 0x00, 0x00, 0x00, 0x80, 0xff, 0xff, 0xff,
  0xff, 0xff, 0xff, 0xff, 0x01, 0x00, 0x00, 0x00, 0xdd, 0x55, 0x82, 0x3b,
  0x21, 0x00, 0x00, 0x00, 0x6d, 0x6f, 0x64, 0x65, 0x6c, 0x2f, 0x6d, 0x6f,
  0x64, 0x65, 0x6c, 0x2f, 0x6d, 0x61, 0x78, 0x5f, 0x70, 0x6f, 0x6f, 0x6c,
  0x69, 0x6e, 0x67, 0x31, 0x64, 0x2f, 0x4d, 0x61, 0x78, 0x50, 0x6f, 0x6f,
  0x6c, 0x00, 0x00, 0x00, 0x04, 0x00, 0x00, 0x00, 0x01, 0x00, 0x00, 0x00,
  0x80, 0x00, 0x00, 0x00, 0x01, 0x00, 0x00, 0x00, 0x06, 0x00, 0x00, 0x00,
  0x8a, 0xff, 0xff, 0xff, 0x00, 0x00, 0x09, 0x01, 0x58, 0x00, 0x00, 0x00,
  0x28, 0x00, 0x00, 0x00, 0x04, 0x00, 0x00, 0x00, 0x74, 0xff, 0xff, 0xff,
  0x14, 0x00, 0x00, 0x00, 0x04, 0x00, 0x00, 0x00, 0x01, 0x00, 0x00, 0x00,
  0x80, 0xff, 0xff, 0xff, 0xff, 0xff, 0xff, 0xff, 0x01, 0x00, 0x00, 0x00,
  0xdd, 0x55, 0x82, 0x3b, 0x25, 0x00, 0x00, 0x00, 0x6d, 0x6f, 0x64, 0x65,
  0x6c, 0x2f, 0x6d, 0x6f, 0x64, 0x65, 0x6c, 0x2f, 0x6d, 0x61, 0x78, 0x5f,
  0x70, 0x6f, 0x6f, 0x6c, 0x69, 0x6e, 0x67, 0x31, 0x64, 0x2f, 0x45, 0x78,
  0x70, 0x61, 0x6e, 0x64, 0x44, 0x69, 0x6d, 0x73, 0x31, 0x00, 0x00, 0x00,
  0x04, 0x00, 0x00, 0x00, 0x01, 0x00, 0x00, 0x00, 0x00, 0x01, 0x00, 0x00,
  0x01, 0x00, 0x00, 0x00, 0x06, 0x00, 0x00, 0x00, 0x00, 0x00, 0x16, 0x00,
  0x14, 0x00, 0x08, 0x00, 0x06, 0x00, 0x00, 0x00, 0x0c, 0x00, 0x10, 0x00,
  0x00, 0x00, 0x00, 0x00, 0x00, 0x00, 0x07, 0x00, 0x16, 0x00, 0x00, 0x00,
  0x00, 0x00, 0x09, 0x01, 0x5c, 0x00, 0x00, 0x00, 0x38, 0x00, 0x00, 0x00,
  0x10, 0x00, 0x00, 0x00, 0x0c, 0x00, 0x0c, 0x00, 0x00, 0x00, 0x00, 0x00,
  0x04, 0x00, 0x08, 0x00, 0x0c, 0x00, 0x00, 0x00, 0x18, 0x00, 0x00, 0x00,
  0x04, 0x00, 0x00, 0x00, 0x01, 0x00, 0x00, 0x00, 0x80, 0xff, 0xff, 0xff,
  0xff, 0xff, 0xff, 0xff, 0x00, 0x00, 0x00, 0x00, 0x01, 0x00, 0x00, 0x00,
  0xc6, 0x79, 0x80, 0x3b, 0x19, 0x00, 0x00, 0x00, 0x73, 0x65, 0x72, 0x76,
  0x69, 0x6e, 0x67, 0x5f, 0x64, 0x65, 0x66, 0x61, 0x75, 0x6c, 0x74, 0x5f,
  0x69, 0x6e, 0x70, 0x75, 0x74, 0x5f, 0x31, 0x3a, 0x30, 0x00, 0x00, 0x00,
  0x03, 0x00, 0x00, 0x00, 0x01, 0x00, 0x00, 0x00, 0x00, 0x01, 0x00, 0x00,
  0x01, 0x00, 0x00, 0x00, 0x03, 0x00, 0x00, 0x00, 0x44, 0x00, 0x00, 0x00,
  0x24, 0x00, 0x00, 0x00, 0x04, 0x00, 0x00, 0x00, 0xf0, 0xff, 0xff, 0xff,
  0x00, 0x00, 0x00, 0x19, 0x02, 0x00, 0x00, 0x00, 0x19, 0x00, 0x00, 0x00,
  0x0c, 0x00, 0x10, 0x00, 0x07, 0x00, 0x00, 0x00, 0x08, 0x00, 0x0c, 0x00,
  0x0c, 0x00, 0x00, 0x00, 0x00, 0x00, 0x00, 0x11, 0x02, 0x00, 0x00, 0x00,
  0x11, 0x00, 0x00, 0x00, 0x0c, 0x00, 0x10, 0x00, 0x07, 0x00, 0x08, 0x00,
  0x00, 0x00, 0x0c, 0x00, 0x0c, 0x00, 0x00, 0x00, 0x00, 0x00, 0x00, 0x20,
  0x08, 0x00, 0x00, 0x00, 0x20, 0x00, 0x00, 0x00, 0x0c, 0x00, 0x00, 0x00,
  0x4e, 0x65, 0x75, 0x74, 0x72, 0x6f, 0x6e, 0x47, 0x72, 0x61, 0x70, 0x68,
  0x00, 0x00, 0x00, 0x00
};
static const unsigned int model_data_len = 11824;
