// Copyright 2022-2024 NXP.
// All rights reserved.
// SPDX-License-Identifier: BSD-3-Clause

// Neutron Converter Version: 1.2.0+0X1c933f1b
// Neutron Microcode Version: 0X1c933f1b

/*
// Register operators for TFLite Micro.
static tflite::MicroMutableOpResolver<5> s_microOpResolver;
s_microOpResolver.AddReshape();
s_microOpResolver.AddConv2D();
s_microOpResolver.AddMaxPool2D();
s_microOpResolver.AddFullyConnected();
s_microOpResolver.AddSoftmax();
*/

#define MODEL_NAME "MIX_LMUEBCnet_1D_normalized_converted.tflite"
#define MODEL_SIZE 39040

static const unsigned char model_data[] __attribute__((aligned(16))) = {
  0x1c, 0x00, 0x00, 0x00, 0x54, 0x46, 0x4c, 0x33, 0x14, 0x00, 0x20, 0x00,
  0x1c, 0x00, 0x18, 0x00, 0x14, 0x00, 0x10, 0x00, 0x0c, 0x00, 0x00, 0x00,
  0x08, 0x00, 0x04, 0x00, 0x14, 0x00, 0x00, 0x00, 0x1c, 0x00, 0x00, 0x00,
  0x8c, 0x00, 0x00, 0x00, 0xe4, 0x00, 0x00, 0x00, 0x6c, 0x81, 0x00, 0x00,
  0x7c, 0x81, 0x00, 0x00, 0xec, 0x97, 0x00, 0x00, 0x03, 0x00, 0x00, 0x00,
  0x01, 0x00, 0x00, 0x00, 0x10, 0x00, 0x00, 0x00, 0x00, 0x00, 0x0a, 0x00,
  0x10, 0x00, 0x0c, 0x00, 0x08, 0x00, 0x04, 0x00, 0x0a, 0x00, 0x00, 0x00,
  0x0c, 0x00, 0x00, 0x00, 0x1c, 0x00, 0x00, 0x00, 0x38, 0x00, 0x00, 0x00,
  0x0f, 0x00, 0x00, 0x00, 0x73, 0x65, 0x72, 0x76, 0x69, 0x6e, 0x67, 0x5f,
  0x64, 0x65, 0x66, 0x61, 0x75, 0x6c, 0x74, 0x00, 0x01, 0x00, 0x00, 0x00,
  0x04, 0x00, 0x00, 0x00, 0x9c, 0xff, 0xff, 0xff, 0x29, 0x00, 0x00, 0x00,
  0x04, 0x00, 0x00, 0x00, 0x05, 0x00, 0x00, 0x00, 0x6d, 0x6f, 0x64, 0x65,
  0x6c, 0x00, 0x00, 0x00, 0x01, 0x00, 0x00, 0x00, 0x04, 0x00, 0x00, 0x00,
  0x4a, 0x7e, 0xff, 0xff, 0x04, 0x00, 0x00, 0x00, 0x07, 0x00, 0x00, 0x00,
  0x69, 0x6e, 0x70, 0x75, 0x74, 0x5f, 0x31, 0x00, 0x02, 0x00, 0x00, 0x00,
  0x34, 0x00, 0x00, 0x00, 0x04, 0x00, 0x00, 0x00, 0xdc, 0xff, 0xff, 0xff,
  0x2c, 0x00, 0x00, 0x00, 0x04, 0x00, 0x00, 0x00, 0x13, 0x00, 0x00, 0x00,
  0x43, 0x4f, 0x4e, 0x56, 0x45, 0x52, 0x53, 0x49, 0x4f, 0x4e, 0x5f, 0x4d,
  0x45, 0x54, 0x41, 0x44, 0x41, 0x54, 0x41, 0x00, 0x08, 0x00, 0x0c, 0x00,
  0x08, 0x00, 0x04, 0x00, 0x08, 0x00, 0x00, 0x00, 0x2b, 0x00, 0x00, 0x00,
  0x04, 0x00, 0x00, 0x00, 0x13, 0x00, 0x00, 0x00, 0x6d, 0x69, 0x6e, 0x5f,
  0x72, 0x75, 0x6e, 0x74, 0x69, 0x6d, 0x65, 0x5f, 0x76, 0x65, 0x72, 0x73,
  0x69, 0x6f, 0x6e, 0x00, 0x2d, 0x00, 0x00, 0x00, 0x84, 0x80, 0x00, 0x00,
  0x7c, 0x80, 0x00, 0x00, 0x54, 0x80, 0x00, 0x00, 0x24, 0x80, 0x00, 0x00,
  0xe4, 0x7f, 0x00, 0x00, 0xa4, 0x7f, 0x00, 0x00, 0x64, 0x7f, 0x00, 0x00,
  0x24, 0x7f, 0x00, 0x00, 0x04, 0x7f, 0x00, 0x00, 0xe4, 0x7e, 0x00, 0x00,
  0xc4, 0x7e, 0x00, 0x00, 0xa4, 0x7e, 0x00, 0x00, 0x84, 0x7e, 0x00, 0x00,
  0x64, 0x7e, 0x00, 0x00, 0x40, 0x7e, 0x00, 0x00, 0xe8, 0x7d, 0x00, 0x00,
  0x98, 0x7b, 0x00, 0x00, 0x08, 0x77, 0x00, 0x00, 0x38, 0x70, 0x00, 0x00,
  0x68, 0x69, 0x00, 0x00, 0x98, 0x62, 0x00, 0x00, 0x80, 0x62, 0x00, 0x00,
  0x70, 0x02, 0x00, 0x00, 0x20, 0x01, 0x00, 0x00, 0x18, 0x01, 0x00, 0x00,
  0x10, 0x01, 0x00, 0x00, 0x08, 0x01, 0x00, 0x00, 0x00, 0x01, 0x00, 0x00,
  0xf8, 0x00, 0x00, 0x00, 0xf0, 0x00, 0x00, 0x00, 0xe8, 0x00, 0x00, 0x00,
  0xe0, 0x00, 0x00, 0x00, 0xd8, 0x00, 0x00, 0x00, 0xd0, 0x00, 0x00, 0x00,
  0xc8, 0x00, 0x00, 0x00, 0xc0, 0x00, 0x00, 0x00, 0xb8, 0x00, 0x00, 0x00,
  0xb0, 0x00, 0x00, 0x00, 0xa8, 0x00, 0x00, 0x00, 0xa0, 0x00, 0x00, 0x00,
  0x98, 0x00, 0x00, 0x00, 0x90, 0x00, 0x00, 0x00, 0x88, 0x00, 0x00, 0x00,
  0x68, 0x00, 0x00, 0x00, 0x04, 0x00, 0x00, 0x00, 0x72, 0x7f, 0xff, 0xff,
  0x04, 0x00, 0x00, 0x00, 0x54, 0x00, 0x00, 0x00, 0x0c, 0x00, 0x00, 0x00,
  0x08, 0x00, 0x0e, 0x00, 0x08, 0x00, 0x04, 0x00, 0x08, 0x00, 0x00, 0x00,
  0x10, 0x00, 0x00, 0x00, 0x24, 0x00, 0x00, 0x00, 0x00, 0x00, 0x06, 0x00,
  0x08, 0x00, 0x04, 0x00, 0x06, 0x00, 0x00, 0x00, 0x04, 0x00, 0x00, 0x00,
  0x00, 0x00, 0x00, 0x00, 0x00, 0x00, 0x0a, 0x00, 0x10, 0x00, 0x0c, 0x00,
  0x08, 0x00, 0x04, 0x00, 0x0a, 0x00, 0x00, 0x00, 0x02, 0x00, 0x00, 0x00,
  0x02, 0x00, 0x00, 0x00, 0x04, 0x00, 0x00, 0x00, 0x06, 0x00, 0x00, 0x00,
  0x32, 0x2e, 0x31, 0x35, 0x2e, 0x31, 0x00, 0x00, 0xd2, 0x7f, 0xff, 0xff,
  0x04, 0x00, 0x00, 0x00, 0x10, 0x00, 0x00, 0x00, 0x31, 0x2e, 0x35, 0x2e,
  0x30, 0x00, 0x00, 0x00, 0x00, 0x00, 0x00, 0x00, 0x00, 0x00, 0x00, 0x00,
  0x58, 0x6a, 0xff, 0xff, 0x5c, 0x6a, 0xff, 0xff, 0x60, 0x6a, 0xff, 0xff,
  0x64, 0x6a, 0xff, 0xff, 0x68, 0x6a, 0xff, 0xff, 0x6c, 0x6a, 0xff, 0xff,
  0x70, 0x6a, 0xff, 0xff, 0x74, 0x6a, 0xff, 0xff, 0x78, 0x6a, 0xff, 0xff,
  0x7c, 0x6a, 0xff, 0xff, 0x80, 0x6a, 0xff, 0xff, 0x84, 0x6a, 0xff, 0xff,
  0x88, 0x6a, 0xff, 0xff, 0x8c, 0x6a, 0xff, 0xff, 0x90, 0x6a, 0xff, 0xff,
  0x94, 0x6a, 0xff, 0xff, 0x98, 0x6a, 0xff, 0xff, 0x9c, 0x6a, 0xff, 0xff,
  0xa0, 0x6a, 0xff, 0xff, 0x3a, 0x80, 0xff, 0xff, 0x04, 0x00, 0x00, 0x00,
  0x40, 0x01, 0x00, 0x00, 0x9e, 0x7e, 0x76, 0x3d, 0x96, 0x16, 0x76, 0xbd,
  0xa0, 0xb7, 0xb2, 0x3e, 0x16, 0x6c, 0x3a, 0x3c, 0xb3, 0x8a, 0xa6, 0xbe,
  0xaf, 0x5f, 0xb0, 0xbe, 0x10, 0x22, 0x41, 0x3e, 0xd3, 0x4a, 0x63, 0xbd,
  0x08, 0xdc, 0x84, 0xbe, 0xc6, 0x60, 0xdc, 0x3d, 0xec, 0x98, 0x4a, 0x3e,
  0xa8, 0xae, 0x8f, 0x3e, 0xf4, 0xec, 0xdc, 0xbe, 0xc5, 0x93, 0x05, 0x3d,
  0xef, 0x58, 0x3f, 0xbb, 0xd6, 0x63, 0x14, 0xbe, 0xb8, 0x4f, 0x8d, 0x3e,
  0xfc, 0x09, 0x4e, 0x3d, 0xe1, 0x6d, 0xaf, 0x3e, 0xa9, 0x87, 0xb2, 0x3d,
  0x82, 0xcf, 0xc2, 0xbe, 0xfa, 0x68, 0xc8, 0xbe, 0x1c, 0x71, 0x5b, 0xbd,
  0x2f, 0x6a, 0xc0, 0xbd, 0x44, 0x43, 0xf4, 0xbd, 0x16, 0x15, 0xf0, 0x3a,
  0x6f, 0x7e, 0xcb, 0x3d, 0x6f, 0x9b, 0xc8, 0x3e, 0x8a, 0x2e, 0x77, 0x3e,
  0x75, 0x7a, 0x87, 0xbd, 0x5d, 0xe6, 0x83, 0xbe, 0x43, 0x47, 0x54, 0xbb,
  0x71, 0xa0, 0xa0, 0x3e, 0xe1, 0xe9, 0x11, 0x3e, 0x86, 0x98, 0x5d, 0xbf,
  0x01, 0x72, 0x28, 0x3c, 0xc3, 0xc9, 0x9e, 0xbe, 0x8e, 0x82, 0xa7, 0xbe,
  0x59, 0xab, 0xd3, 0xbd, 0x03, 0xe4, 0xe4, 0xbd, 0x5d, 0x51, 0xea, 0xbd,
  0x6c, 0x91, 0xde, 0x3d, 0x71, 0xa9, 0xa3, 0x3d, 0x99, 0x12, 0x77, 0x3e,
  0xce, 0x1c, 0x9f, 0x3e, 0xfb, 0xf9, 0x8f, 0x3e, 0xb1, 0xcd, 0x8c, 0x3e,
  0x15, 0x1a, 0xa7, 0xbd, 0xba, 0x3d, 0x2b, 0x3e, 0x15, 0x9c, 0xd9, 0x3d,
  0x71, 0x5f, 0xeb, 0x3e, 0xa7, 0x12, 0x33, 0x3e, 0x8b, 0x43, 0xc4, 0xbe,
  0x1a, 0x85, 0xc3, 0xbe, 0x21, 0xe0, 0x59, 0xbe, 0x8c, 0xb7, 0x88, 0xbd,
  0x11, 0xa6, 0xd8, 0xbd, 0xff, 0x76, 0x8a, 0xbe, 0xd1, 0x33, 0x7e, 0x3e,
  0xc5, 0x2a, 0x81, 0x3e, 0x65, 0xcd, 0x62, 0x3e, 0x04, 0x2a, 0x21, 0xbe,
  0x87, 0x37, 0xc1, 0x3d, 0x16, 0xfb, 0x15, 0xbd, 0x6b, 0xe2, 0x98, 0x3e,
  0x93, 0x49, 0x22, 0xbe, 0x8a, 0x15, 0x96, 0x3e, 0x3f, 0x4f, 0xfa, 0x3d,
  0x23, 0x09, 0xa3, 0xbe, 0xe6, 0xbd, 0xb0, 0xbe, 0x87, 0x6f, 0x35, 0xbd,
  0x9b, 0x9e, 0xe0, 0xbd, 0x00, 0xe1, 0x09, 0xbe, 0x9b, 0x2b, 0x04, 0x3e,
  0x70, 0x76, 0x37, 0x3e, 0xae, 0x31, 0x88, 0xbe, 0x69, 0x40, 0x57, 0xba,
  0x84, 0x45, 0x86, 0xbe, 0x4c, 0x60, 0xe3, 0xbd, 0x2f, 0xfa, 0xae, 0x3d,
  0x86, 0x81, 0xff, 0xff, 0x04, 0x00, 0x00, 0x00, 0x00, 0x60, 0x00, 0x00,
  0xa3, 0x01, 0x1a, 0xbe, 0x33, 0xf9, 0x40, 0xbf, 0x1e, 0x04, 0x6c, 0xbf,
  0xe7, 0x32, 0xd8, 0x3e, 0x4f, 0x27, 0x36, 0x3f, 0x62, 0x3d, 0x93, 0xbc,
  0x17, 0x58, 0x6d, 0xbe, 0x55, 0xe4, 0xda, 0xbe, 0x15, 0x4e, 0x99, 0xbd,
  0xa6, 0x5c, 0x13, 0xbf, 0x4e, 0xcf, 0xa3, 0xbe, 0xa9, 0x1f, 0x8a, 0xbe,
  0xb9, 0x46, 0x04, 0xbd, 0x30, 0xf1, 0x4b, 0xbe, 0x3f, 0x90, 0x3f, 0xbe,
  0xef, 0x43, 0xc0, 0x3d, 0xa8, 0x3b, 0xff, 0xbe, 0x5f, 0xa0, 0x70, 0xbe,
  0xf4, 0x54, 0x64, 0x3e, 0x72, 0x89, 0xdf, 0x3e, 0x74, 0xfb, 0x8d, 0x3f,
  0x03, 0x6f, 0x89, 0xbe, 0x17, 0x27, 0xc8, 0x3d, 0x57, 0x83, 0x87, 0x3d,
  0xd8, 0x4e, 0xbe, 0x3e, 0x30, 0xf8, 0x8c, 0xbe, 0xd6, 0x86, 0x9f, 0xbe,
  0x5c, 0x56, 0x73, 0xbe, 0xe6, 0x9d, 0x81, 0x3e, 0x83, 0x10, 0xc0, 0x3d,
  0x96, 0xe9, 0x24, 0xbe, 0xdf, 0xe3, 0x2f, 0xbf, 0x90, 0xb1, 0x9e, 0x3f,
  0xe3, 0x0a, 0xb0, 0x3e, 0xd7, 0x56, 0x44, 0xbf, 0x0b, 0xdc, 0x67, 0xbe,
  0x07, 0xe5, 0xd4, 0x3f, 0x2f, 0x00, 0x9f, 0xbe, 0xe4, 0xca, 0xe4, 0xbd,
  0xa7, 0x8f, 0xb6, 0xbe, 0x43, 0x14, 0xeb, 0x3e, 0xde, 0xf4, 0x51, 0x3e,
  0x9a, 0x2e, 0x16, 0xbf, 0x96, 0x86, 0x86, 0xbe, 0xa7, 0xf8, 0xd3, 0x3e,
  0xe3, 0x96, 0xdb, 0xbd, 0xb7, 0xdf, 0x9b, 0xbf, 0xe1, 0x89, 0x06, 0x3f,
  0x32, 0x49, 0xe1, 0x3f, 0xf2, 0x11, 0x32, 0x3d, 0x85, 0x28, 0x6c, 0x3e,
  0xe3, 0xc3, 0xfd, 0x3c, 0x82, 0xb2, 0x2a, 0x3e, 0x89, 0x03, 0xf8, 0x3e,
  0x1a, 0x57, 0xd1, 0xbe, 0x9b, 0xc2, 0xd2, 0xbe, 0xde, 0x62, 0xdc, 0x3f,
  0xc2, 0x6a, 0x72, 0xbd, 0xd5, 0x4e, 0xd0, 0xbe, 0xd2, 0xa4, 0x80, 0x3f,
  0x2b, 0x3a, 0x17, 0x3d, 0x15, 0xed, 0x96, 0x3e, 0x5c, 0x52, 0x6b, 0xbe,
  0x3b, 0xf6, 0x85, 0x3d, 0x8c, 0x01, 0x0d, 0xbf, 0xcb, 0x7a, 0x08, 0x3f,
  0x19, 0x1b, 0xd3, 0xbe, 0xa1, 0x2c, 0x6d, 0x3e, 0x5a, 0x66, 0xa4, 0x3f,
  0xb1, 0x10, 0x2a, 0x3f, 0x7d, 0x82, 0xff, 0xbe, 0xa7, 0x60, 0x0f, 0x3f,
  0x28, 0x59, 0x43, 0x3f, 0x39, 0x69, 0x9a, 0x3e, 0x91, 0x62, 0x43, 0xbf,
  0x19, 0x1e, 0xc3, 0x3b, 0xe6, 0xee, 0x00, 0x3e, 0xa1, 0xee, 0xed, 0x3e,
  0xc9, 0x9d, 0x01, 0xbf, 0xed, 0x96, 0xa1, 0xbd, 0x81, 0x9a, 0xc9, 0x3f,
  0xb6, 0x62, 0x25, 0xbf, 0x36, 0xbc, 0x65, 0xbe, 0x37, 0x4c, 0x20, 0xbd,
  0xb0, 0xd7, 0x23, 0x3f, 0x89, 0x4b, 0x85, 0xbe, 0x5d, 0x72, 0x28, 0xbe,
  0x72, 0xa8, 0xb2, 0x3e, 0x05, 0x66, 0x6f, 0x3e, 0xbc, 0x4f, 0x87, 0xbd,
  0x8c, 0xa4, 0x6e, 0xbe, 0x1b, 0xfc, 0x41, 0xbe, 0xea, 0x98, 0x9d, 0x3f,
  0x55, 0x8d, 0x04, 0xbe, 0xef, 0x84, 0x8f, 0xbd, 0x0d, 0x93, 0xc7, 0x3e,
  0xb5, 0x97, 0x56, 0x3e, 0x63, 0xef, 0x8c, 0xbe, 0x9b, 0x86, 0xc4, 0x3d,
  0x3c, 0x89, 0xc6, 0x3e, 0x69, 0x38, 0x93, 0x3d, 0xb7, 0x0a, 0xb4, 0x3d,
  0x28, 0x07, 0xa5, 0xbe, 0xc4, 0x00, 0x28, 0xbf, 0x59, 0x8e, 0x3e, 0x3f,
  0x55, 0xb0, 0x05, 0x3f, 0xb5, 0x06, 0xaa, 0xbd, 0x3d, 0x74, 0xac, 0x3e,
  0x36, 0xca, 0xaf, 0x3e, 0xb9, 0x1e, 0xed, 0xbd, 0x3a, 0xe9, 0x5a, 0x3e,
  0x2a, 0x86, 0xc4, 0x3e, 0xef, 0xde, 0x86, 0x3e, 0x80, 0x94, 0x24, 0xbf,
  0x05, 0xba, 0xa5, 0xbe, 0xee, 0xe2, 0xf0, 0xbe, 0x35, 0x7f, 0x53, 0x3f,
  0x04, 0x41, 0x23, 0x3f, 0x42, 0x00, 0x6c, 0xbc, 0x7d, 0x89, 0xfc, 0x3f,
  0x68, 0xb8, 0x03, 0xbf, 0x77, 0x54, 0x78, 0xbf, 0x7f, 0x85, 0x48, 0xbb,
  0xcf, 0x06, 0x6b, 0x3e, 0xf0, 0x11, 0x27, 0x3f, 0x7d, 0xdf, 0xa7, 0xbf,
  0x25, 0xd6, 0x16, 0x3e, 0x35, 0x75, 0x08, 0xbf, 0x48, 0x76, 0xa9, 0x3f,
  0xd8, 0x7b, 0xb5, 0x3b, 0xe1, 0x6c, 0xc5, 0x3e, 0x5b, 0x11, 0x46, 0x3f,
  0x85, 0x7c, 0x04, 0x3f, 0xa4, 0xd5, 0x8a, 0xbf, 0x07, 0xb2, 0x7f, 0xbe,
  0xfe, 0x6e, 0x8f, 0x3e, 0x5f, 0x3b, 0xb3, 0x3f, 0x23, 0x65, 0xa6, 0x3e,
  0x61, 0x1b, 0x39, 0x3f, 0x98, 0xa8, 0x15, 0xbf, 0xf2, 0xe8, 0x02, 0x40,
  0x72, 0xce, 0x57, 0xbf, 0x6a, 0xfa, 0xbb, 0x3e, 0x28, 0x34, 0x09, 0x3f,
  0xf5, 0x2d, 0xab, 0xbd, 0x66, 0xf7, 0xe4, 0x3e, 0x13, 0x74, 0xaf, 0xbe,
  0x74, 0x00, 0x74, 0x3f, 0x15, 0xc5, 0xa5, 0x3e, 0xb1, 0x7a, 0x98, 0x3e,
  0x9f, 0x39, 0x47, 0x3f, 0xfa, 0x43, 0x49, 0xbf, 0xcf, 0x32, 0x0c, 0x3f,
  0xa9, 0x38, 0x7e, 0xbe, 0x51, 0xd0, 0xaf, 0xbe, 0xe9, 0xe6, 0x03, 0x40,
  0xb4, 0xc3, 0xb1, 0xbe, 0x3f, 0x1d, 0x26, 0xbd, 0xe6, 0x9e, 0x62, 0x3e,
  0xb2, 0x27, 0x40, 0x3f, 0xee, 0x1f, 0x1e, 0x3f, 0x4d, 0x3c, 0x50, 0x3e,
  0x2b, 0xd7, 0x06, 0xbd, 0xc5, 0xad, 0x91, 0xbe, 0xc3, 0x55, 0xf3, 0x3e,
  0xe9, 0x7d, 0x3a, 0xbe, 0x8a, 0x48, 0xa0, 0x3d, 0x6a, 0xf2, 0x25, 0xbf,
  0x4f, 0x30, 0x2b, 0xbe, 0x91, 0x7f, 0x83, 0xbe, 0xf3, 0xe0, 0x64, 0x3e,
  0xfc, 0xa1, 0xaf, 0xbc, 0x05, 0xc3, 0xa2, 0x3c, 0x3f, 0xc2, 0x33, 0x3e,
  0x9d, 0x9c, 0x32, 0x3e, 0x73, 0x68, 0x5f, 0x3f, 0xb6, 0x71, 0x3f, 0x3d,
  0xf6, 0x0f, 0x69, 0xbe, 0xcc, 0x09, 0x82, 0x3d, 0x5f, 0x6b, 0x43, 0x3e,
  0x98, 0xfc, 0xdb, 0x3d, 0x38, 0xa6, 0x4a, 0x3d, 0x27, 0x3e, 0x0f, 0x3e,
  0xb5, 0xdc, 0xa8, 0x3e, 0x7e, 0x52, 0x3b, 0x3f, 0x31, 0x43, 0x71, 0x3d,
  0x47, 0x6b, 0x1d, 0x3f, 0x67, 0x1f, 0x0d, 0x3f, 0x32, 0xdc, 0xc2, 0xbd,
  0xec, 0xd7, 0x9a, 0xbb, 0x96, 0x5e, 0x38, 0xbf, 0xe9, 0x9a, 0xd7, 0x3d,
  0x12, 0x7c, 0x5d, 0x3e, 0x1b, 0xf5, 0x8f, 0xbd, 0x72, 0x0f, 0xa9, 0x3e,
  0x93, 0x2c, 0x1f, 0xbf, 0x41, 0xc7, 0x7f, 0xbe, 0x1b, 0x6b, 0xcd, 0x3e,
  0x1e, 0x1a, 0x2f, 0x3e, 0xf7, 0xa5, 0xee, 0xbd, 0x4b, 0xa9, 0xc8, 0xbd,
  0xef, 0x33, 0x00, 0x3e, 0x1e, 0xa6, 0x8e, 0xbe, 0x0b, 0x0a, 0x3f, 0xbf,
  0x1d, 0xfa, 0x4e, 0x3e, 0xc0, 0x31, 0x1f, 0xbf, 0xf1, 0x95, 0x7b, 0xbd,
  0x24, 0xea, 0x9c, 0xbd, 0xc7, 0xbd, 0x83, 0x3e, 0x4e, 0xa2, 0xba, 0x3e,
  0x8c, 0x3c, 0x93, 0xbe, 0xcb, 0xd7, 0x7f, 0xbe, 0x91, 0x63, 0x15, 0xbf,
  0xe0, 0xc0, 0x7f, 0x3e, 0xb6, 0x17, 0x1d, 0xbf, 0x70, 0x60, 0xc1, 0x3e,
  0xd8, 0x79, 0x5d, 0x3e, 0xcf, 0xd6, 0xdd, 0x3b, 0x7e, 0xce, 0xf6, 0x3b,
  0xd2, 0xac, 0x42, 0xbf, 0xde, 0x8e, 0x1c, 0x3f, 0x58, 0x91, 0xd6, 0xbd,
  0x54, 0x0c, 0x38, 0x3e, 0xf7, 0x86, 0x01, 0x3e, 0xda, 0xf7, 0xb1, 0xbc,
  0x4d, 0x19, 0x21, 0x3f, 0x81, 0xc4, 0xac, 0xbe, 0x57, 0x83, 0x97, 0xbe,
  0x63, 0x33, 0x80, 0xbe, 0x84, 0x1b, 0x82, 0x3e, 0x02, 0x8e, 0xe4, 0xbe,
  0x31, 0xcf, 0x9c, 0xbe, 0xe6, 0x8a, 0x75, 0x3e, 0xa7, 0xd7, 0x17, 0x3e,
  0x39, 0x99, 0xdc, 0x3e, 0x90, 0x4b, 0xa6, 0x3f, 0x2f, 0x4a, 0x0e, 0x3d,
  0xba, 0x59, 0x7f, 0x3f, 0x5f, 0xc1, 0xd0, 0xbe, 0x33, 0x44, 0x93, 0xbd,
  0x52, 0x54, 0x6a, 0xbf, 0x13, 0xf7, 0x16, 0x3f, 0xd6, 0x16, 0x72, 0xbe,
  0xd8, 0xcf, 0x89, 0xbf, 0x7a, 0x6e, 0x17, 0x3f, 0xb9, 0x9d, 0x85, 0x3e,
  0x6b, 0xed, 0x56, 0xba, 0x0a, 0x95, 0x90, 0xbd, 0x02, 0x32, 0x37, 0xbf,
  0x93, 0x88, 0x4e, 0x3f, 0xfb, 0x3d, 0xd2, 0x3e, 0x1c, 0xd2, 0x4f, 0xbe,
  0x79, 0x9a, 0x3f, 0x3d, 0x7f, 0x86, 0xbf, 0x3e, 0x72, 0x39, 0x1c, 0x3f,
  0xc1, 0x43, 0x9d, 0xbe, 0xd0, 0x28, 0x85, 0x3d, 0x88, 0xa6, 0x53, 0xbf,
  0x4e, 0x73, 0x07, 0xbf, 0x53, 0xc6, 0x16, 0x3f, 0x1f, 0xd7, 0xf9, 0xbe,
  0x6b, 0xac, 0xec, 0x3e, 0x1f, 0x98, 0xe2, 0x3c, 0x2f, 0x7b, 0xc6, 0x3d,
  0x50, 0xde, 0x70, 0x3f, 0x9e, 0x35, 0x7d, 0x3e, 0x89, 0x10, 0xaf, 0x3f,
  0xd4, 0xd6, 0x3b, 0xbe, 0xa0, 0xd0, 0xa4, 0xbe, 0x3b, 0xbc, 0x86, 0xbe,
  0x04, 0xd4, 0xc5, 0xbe, 0x1c, 0x7a, 0x9e, 0x3d, 0x9a, 0xf2, 0x41, 0x3f,
  0xf8, 0x2b, 0x0b, 0x3f, 0xa1, 0xc5, 0x2a, 0x3e, 0x05, 0x8a, 0xcc, 0xbd,
  0x8f, 0x8a, 0xa8, 0x3e, 0x5d, 0xd6, 0x1e, 0x3f, 0x99, 0x81, 0x2a, 0x3f,
  0x6a, 0x6a, 0x9a, 0xbc, 0x5d, 0x92, 0x0c, 0xbe, 0x76, 0x94, 0xb7, 0xbc,
  0xfd, 0xc9, 0x9a, 0x3e, 0x7c, 0xd2, 0xaf, 0x3e, 0x25, 0x0d, 0x05, 0x40,
  0x77, 0x40, 0x0c, 0xbf, 0xda, 0xd3, 0xdc, 0xbd, 0x14, 0xe3, 0x67, 0xbe,
  0xd8, 0x15, 0x02, 0xbf, 0x7b, 0x10, 0xa1, 0x3e, 0x13, 0xb3, 0x2f, 0x3f,
  0xc8, 0x4f, 0x69, 0x3e, 0x74, 0xef, 0xc6, 0x3d, 0x8d, 0x53, 0x24, 0x3f,
  0x4d, 0xaf, 0xfe, 0xbd, 0x4e, 0x59, 0x2d, 0x3e, 0xd1, 0x9f, 0x82, 0x3f,
  0xbc, 0xc0, 0x3e, 0xbe, 0x4d, 0xa9, 0xe5, 0x3b, 0xd0, 0x41, 0xfc, 0xbd,
  0x19, 0x91, 0x92, 0x3f, 0x77, 0x09, 0xb2, 0x3e, 0x4e, 0xd5, 0x11, 0xbe,
  0x3b, 0xf5, 0x09, 0xbe, 0x6e, 0x09, 0x83, 0xbe, 0xa0, 0x67, 0x98, 0x3e,
  0x28, 0x27, 0x6e, 0xbe, 0xc6, 0xb4, 0x99, 0x3e, 0x40, 0x16, 0x10, 0x3f,
  0x8d, 0x23, 0x56, 0xbf, 0xae, 0x04, 0xc1, 0x3d, 0xb7, 0x75, 0x84, 0xbe,
  0x98, 0x07, 0xf1, 0x3f, 0x72, 0xa7, 0xc4, 0xbe, 0x56, 0x65, 0x7c, 0xbd,
  0x10, 0x79, 0x3d, 0x3f, 0x75, 0x02, 0xf1, 0x3d, 0x3e, 0x76, 0x34, 0x3e,
  0x27, 0xb5, 0xd0, 0xbe, 0xae, 0x74, 0xce, 0xbe, 0x70, 0xbf, 0x04, 0x3e,
  0x68, 0xb2, 0x5e, 0xbf, 0x93, 0x42, 0x19, 0xbf, 0x25, 0xc9, 0x2d, 0x3e,
  0x74, 0xb4, 0xb8, 0x3f, 0x8b, 0x96, 0xf7, 0xbe, 0x83, 0xad, 0x84, 0xbd,
  0x0d, 0xcb, 0xd2, 0xbd, 0xfb, 0x9f, 0x38, 0x3f, 0x1f, 0xc0, 0x92, 0x3c,
  0x03, 0x45, 0x95, 0xbe, 0xa3, 0xe3, 0x81, 0xbe, 0xa9, 0x10, 0xa8, 0xbe,
  0xa4, 0x54, 0xa8, 0xbe, 0xb3, 0x7d, 0x05, 0xbf, 0x0f, 0x48, 0x67, 0x3f,
  0x58, 0x11, 0x44, 0x3d, 0x9c, 0xff, 0x1b, 0xbf, 0xff, 0x2a, 0x61, 0xbe,
  0x54, 0x6a, 0x7e, 0xbe, 0xe7, 0x55, 0x6b, 0x3e, 0xfd, 0x8f, 0x01, 0x3f,
  0xa1, 0x8c, 0xd1, 0xbd, 0xe0, 0xbe, 0xcb, 0xbd, 0xde, 0x25, 0x40, 0xbf,
  0x37, 0x06, 0x95, 0xbe, 0x08, 0x02, 0x53, 0x3e, 0x7e, 0x33, 0xd6, 0xbe,
  0xc0, 0xca, 0x03, 0x3f, 0x69, 0x46, 0x34, 0x3d, 0xc5, 0x9e, 0x1c, 0x3e,
  0x29, 0xcf, 0x40, 0x3e, 0xe7, 0xc4, 0xb6, 0x3e, 0x1d, 0xd9, 0x79, 0xbe,
  0x5d, 0xdb, 0x2d, 0xbd, 0x46, 0x47, 0x88, 0x3e, 0x5a, 0xa7, 0xc2, 0x3e,
  0xf9, 0x1a, 0x72, 0x3d, 0x82, 0xa5, 0x40, 0xbf, 0x31, 0x31, 0xd8, 0x3e,
  0xba, 0x7c, 0xde, 0xbe, 0xfe, 0xd3, 0xe5, 0x3d, 0x69, 0x10, 0xc4, 0x3d,
  0xb8, 0x15, 0xc0, 0x3d, 0x7e, 0x13, 0xf9, 0xbe, 0x29, 0x59, 0x0d, 0x3e,
  0x80, 0xa8, 0x55, 0x3e, 0x02, 0x04, 0x38, 0x3f, 0xd8, 0xf9, 0xb0, 0xbe,
  0x8b, 0x2e, 0x75, 0x3e, 0xf6, 0x76, 0xdf, 0x3e, 0x01, 0xcf, 0x1b, 0x40,
  0x02, 0xc2, 0x53, 0xbe, 0x56, 0xd6, 0x4a, 0x3f, 0xb1, 0xf8, 0xd6, 0x3e,
  0x16, 0x13, 0x4e, 0x3e, 0x09, 0x45, 0x87, 0x3e, 0xb6, 0x4f, 0xae, 0xbd,
  0x2f, 0x22, 0xe7, 0x3d, 0xd3, 0x63, 0x8b, 0x3d, 0x37, 0x86, 0x0c, 0xbf,
  0x0a, 0x35, 0x47, 0x3e, 0xe3, 0x3f, 0x9f, 0xbe, 0xf8, 0xda, 0x09, 0x40,
  0xb5, 0xcb, 0x3f, 0xbd, 0x15, 0xc0, 0x01, 0xbe, 0x17, 0x4e, 0x34, 0xbf,
  0xbf, 0x64, 0x09, 0x3e, 0x79, 0x2b, 0x58, 0x3e, 0x28, 0x06, 0x98, 0xbe,
  0x31, 0xd1, 0x89, 0x3d, 0xd2, 0x2f, 0x89, 0xbe, 0x20, 0xc0, 0xa8, 0x34,
  0x0a, 0xd9, 0x82, 0x3d, 0x68, 0xe0, 0x8a, 0x3d, 0xf2, 0x21, 0xb0, 0x3e,
  0x0c, 0x6f, 0x37, 0xbe, 0xbb, 0x92, 0xcb, 0xbe, 0x4e, 0xa0, 0x88, 0xbd,
  0xe5, 0xca, 0x3e, 0x3e, 0x84, 0x3b, 0x86, 0xbd, 0x16, 0x49, 0xcf, 0xbd,
  0x03, 0xcb, 0xa6, 0xbd, 0xf7, 0xca, 0x6a, 0xbd, 0x41, 0xc4, 0x4e, 0x3d,
  0xad, 0xbe, 0xa8, 0x3e, 0x9d, 0xcf, 0x9f, 0xbe, 0x6e, 0x41, 0x42, 0x3e,
  0x81, 0xbb, 0xd8, 0xbe, 0xc0, 0xd8, 0x18, 0x3d, 0x88, 0x56, 0x1e, 0x3f,
  0xe2, 0x13, 0xdf, 0x3d, 0x55, 0xc6, 0x32, 0xbe, 0x36, 0x14, 0xde, 0x3e,
  0x4c, 0x82, 0x47, 0xbd, 0x6d, 0xea, 0x5b, 0x3e, 0x67, 0xfb, 0x93, 0xbd,
  0x12, 0x66, 0x89, 0x3e, 0x83, 0xf8, 0x33, 0xbb, 0x60, 0xf3, 0xf4, 0xbe,
  0x7b, 0x13, 0xbe, 0xbe, 0xf2, 0xfb, 0x75, 0xbc, 0xc8, 0xd3, 0xc9, 0x3e,
  0xbd, 0xa0, 0x07, 0xbd, 0xd3, 0x42, 0xc2, 0x3d, 0x2f, 0x26, 0xaa, 0xbe,
  0x18, 0x60, 0x0f, 0x3f, 0xc8, 0x69, 0x94, 0x3c, 0x9d, 0xaf, 0x89, 0x3e,
  0xa1, 0x0c, 0x56, 0x3d, 0x36, 0x23, 0x62, 0xbe, 0x29, 0x85, 0xae, 0xbe,
  0xa2, 0xe4, 0xaa, 0xbd, 0x8f, 0xb5, 0x25, 0xbc, 0x48, 0x78, 0x34, 0x3f,
  0x12, 0x0e, 0x1c, 0xbf, 0x71, 0x13, 0xf7, 0xbe, 0xa2, 0xd5, 0x06, 0xbe,
  0x07, 0x3f, 0xe6, 0x3e, 0x04, 0x43, 0x4a, 0xbe, 0x70, 0x65, 0x70, 0xbd,
  0xf9, 0x6a, 0x06, 0x3e, 0x90, 0x05, 0xc4, 0xbe, 0x51, 0x6c, 0xfc, 0x3e,
  0xe2, 0xb8, 0x93, 0xbd, 0x41, 0x78, 0xda, 0xbd, 0x28, 0xb3, 0x45, 0x3f,
  0x7e, 0xb0, 0x93, 0x3e, 0x95, 0x79, 0x45, 0xbe, 0xed, 0x7d, 0x34, 0xbf,
  0x2b, 0x6e, 0x43, 0x3f, 0xce, 0xb7, 0x0f, 0xbf, 0x93, 0x29, 0xb8, 0xbe,
  0x6c, 0xb0, 0x99, 0x3c, 0x15, 0x61, 0xc2, 0xbe, 0x2f, 0xc9, 0x1a, 0x3c,
  0x04, 0xbb, 0x53, 0x3e, 0x19, 0x8b, 0xd2, 0x3d, 0x16, 0x28, 0x59, 0x3f,
  0x24, 0x78, 0xe9, 0xbe, 0x25, 0xe6, 0x45, 0xbf, 0xb7, 0xb4, 0x95, 0xbd,
  0x0b, 0xb6, 0x55, 0x3f, 0x6e, 0x35, 0xef, 0xbe, 0xb0, 0x98, 0x00, 0xbf,
  0x7d, 0x87, 0xb9, 0x3e, 0x41, 0xaf, 0xad, 0xbd, 0xd5, 0x45, 0x8f, 0xbe,
  0x9b, 0xde, 0x2d, 0x3f, 0xd8, 0xf9, 0xcc, 0x3e, 0x31, 0x8a, 0x2c, 0x3f,
  0xfb, 0x22, 0xdb, 0xbe, 0x7f, 0x58, 0xaa, 0xbe, 0xb9, 0x28, 0x0d, 0xbe,
  0x0a, 0x7f, 0x5a, 0x3f, 0x52, 0xd5, 0x24, 0xbf, 0x3a, 0x72, 0x84, 0x3f,
  0x6c, 0x78, 0x78, 0x3c, 0x9b, 0xd0, 0x37, 0xbe, 0x4c, 0x1a, 0xea, 0x3d,
  0x1b, 0x96, 0x18, 0x3f, 0x92, 0x40, 0x2c, 0x3e, 0xb1, 0x60, 0x4c, 0x3f,
  0x31, 0x12, 0x8b, 0xbc, 0x34, 0x9e, 0x8f, 0x3e, 0x22, 0x48, 0xb0, 0x3b,
  0x77, 0x3c, 0xbb, 0x3e, 0x55, 0x8d, 0x4c, 0xbe, 0x77, 0x28, 0x8b, 0x3f,
  0xac, 0xd9, 0xab, 0xbe, 0x53, 0x29, 0xc0, 0xbd, 0xc9, 0x54, 0x2e, 0xbe,
  0x8d, 0x87, 0xda, 0x3e, 0x06, 0xad, 0xbe, 0x3e, 0xa5, 0x0d, 0x0f, 0xbf,
  0x60, 0xa0, 0x45, 0xbd, 0x9f, 0xda, 0xa3, 0xbe, 0x2e, 0x63, 0x0d, 0x3f,
  0xee, 0x78, 0xb0, 0x3e, 0x79, 0x05, 0xaa, 0xbe, 0xfd, 0xe3, 0xb6, 0x3b,
  0xa0, 0x59, 0x7c, 0xbe, 0xe2, 0x71, 0xba, 0xbe, 0x39, 0xb3, 0x32, 0xbd,
  0xa1, 0x6d, 0x90, 0x3e, 0xce, 0xb9, 0x8b, 0x3e, 0x54, 0xd2, 0x51, 0xbf,
  0x75, 0xb0, 0xd6, 0xbd, 0xe7, 0xc8, 0xea, 0x3e, 0x8b, 0xf6, 0x07, 0x3f,
  0xdc, 0xf2, 0x45, 0xbd, 0x37, 0x48, 0xb7, 0x3d, 0xb3, 0xfa, 0xb0, 0x3f,
  0x6b, 0x5f, 0x1a, 0xbe, 0xe1, 0xf3, 0x0f, 0xbf, 0x66, 0x36, 0x84, 0xbe,
  0xbc, 0x49, 0x96, 0x3c, 0xf8, 0xe3, 0x27, 0xbe, 0x7b, 0xc9, 0xd9, 0xbd,
  0x9d, 0x7d, 0x67, 0xbd, 0x62, 0x28, 0xcb, 0xbf, 0x9e, 0x06, 0x2f, 0x3e,
  0x02, 0x94, 0x4f, 0xbf, 0xa2, 0x02, 0x50, 0x3f, 0x6e, 0x9e, 0xd2, 0x3f,
  0x6d, 0x0b, 0x37, 0xbe, 0x38, 0x9f, 0x2c, 0xbf, 0xbd, 0x8f, 0x00, 0xbf,
  0x34, 0x96, 0xb8, 0xbd, 0xda, 0xd4, 0x02, 0x3e, 0x00, 0x91, 0x22, 0xbf,
  0x8e, 0x06, 0x96, 0xbf, 0xe8, 0x5d, 0xde, 0xbe, 0x3a, 0xb8, 0x09, 0x3e,
  0x42, 0xba, 0x16, 0xbf, 0x43, 0xae, 0x80, 0x3f, 0x61, 0x3b, 0x18, 0x40,
  0x6d, 0x54, 0x00, 0xbf, 0x77, 0x22, 0x27, 0xbf, 0x94, 0xd5, 0x06, 0xbb,
  0x1d, 0x0f, 0xa0, 0xbe, 0x0e, 0x28, 0x61, 0xbf, 0x14, 0x96, 0x48, 0xbf,
  0x09, 0x8c, 0x68, 0xbf, 0x60, 0x84, 0x5e, 0xbc, 0x19, 0x5d, 0x95, 0xbc,
  0xa6, 0x53, 0x9e, 0x3e, 0x40, 0x74, 0xd1, 0x3e, 0x89, 0x84, 0xd8, 0x3f,
  0x9d, 0x9e, 0xd9, 0x3d, 0x73, 0xf9, 0xea, 0x3d, 0xf6, 0x74, 0x15, 0xbf,
  0x48, 0x00, 0x1c, 0xbf, 0xe4, 0x21, 0x22, 0xbe, 0xc2, 0x17, 0x0f, 0xbf,
  0x2b, 0xde, 0x8e, 0xbe, 0x7d, 0xc4, 0x57, 0x3f, 0x53, 0x6c, 0x28, 0x3f,
  0xcd, 0x01, 0x68, 0xbd, 0x68, 0xf6, 0x6d, 0xbd, 0xbe, 0x5f, 0x05, 0x3f,
  0x23, 0x57, 0x63, 0x3f, 0xd6, 0xbc, 0x43, 0xbe, 0x65, 0x17, 0xec, 0xbe,
  0xc8, 0x50, 0x8c, 0xbc, 0xe1, 0x1d, 0x0f, 0xbe, 0xf6, 0xec, 0x53, 0xbd,
  0x7f, 0x6e, 0x0d, 0xbe, 0xa7, 0xa6, 0x93, 0x3d, 0x17, 0x67, 0x7b, 0x3e,
  0x44, 0xd4, 0xf4, 0xbd, 0x87, 0x96, 0xcc, 0xbd, 0xac, 0x62, 0x80, 0x3e,
  0x8c, 0x98, 0x82, 0x3e, 0xfe, 0x44, 0xf2, 0x3d, 0x53, 0x4e, 0xfc, 0xbe,
  0xcb, 0x2a, 0x86, 0x3e, 0x82, 0x59, 0x5f, 0x3f, 0xe7, 0x61, 0xdb, 0x3d,
  0x89, 0x7d, 0x2f, 0xbe, 0x59, 0x12, 0x3b, 0xbf, 0x08, 0x7d, 0x12, 0x3f,
  0xcf, 0x4f, 0xac, 0x3c, 0x31, 0x8a, 0x40, 0xbe, 0xbd, 0xb9, 0xe8, 0x3d,
  0xa9, 0x93, 0x5f, 0x3e, 0xd6, 0x5d, 0x07, 0xbf, 0xd6, 0x8b, 0xc5, 0xbe,
  0xba, 0x04, 0xd0, 0x3d, 0x8a, 0x4c, 0x43, 0x3f, 0x28, 0x54, 0x6a, 0x3e,
  0x7c, 0x24, 0x8f, 0x3d, 0x7c, 0xd7, 0x1a, 0x3e, 0x67, 0xdc, 0xbc, 0x3e,
  0xa6, 0xf1, 0xca, 0xbe, 0xed, 0xd1, 0x46, 0xbf, 0xa9, 0xb8, 0x52, 0x3f,
  0xd6, 0x10, 0xd7, 0x3e, 0x6e, 0xfe, 0x3d, 0xbf, 0x66, 0x66, 0xa1, 0x3d,
  0x45, 0xc9, 0xd6, 0xbe, 0x7d, 0x30, 0xba, 0x3d, 0x36, 0xc3, 0x96, 0x3e,
  0x15, 0xf8, 0x9e, 0x3d, 0x1f, 0x1f, 0x24, 0xbe, 0x66, 0x9f, 0x0b, 0x3f,
  0x74, 0xaa, 0x34, 0xbf, 0xa3, 0xf6, 0xa3, 0xbe, 0x96, 0x88, 0xd4, 0x3e,
  0x8d, 0xec, 0x38, 0xbd, 0x53, 0xb7, 0x15, 0xbe, 0x1c, 0xb0, 0xed, 0x3e,
  0x1a, 0x7d, 0x1c, 0x3f, 0x15, 0xf3, 0x1e, 0xbf, 0x82, 0xc1, 0x9c, 0x3e,
  0x1e, 0x8c, 0x9b, 0xbe, 0x1f, 0x63, 0xde, 0x3d, 0x1c, 0xe1, 0x07, 0x3f,
  0xbf, 0x8b, 0xa1, 0xbe, 0x21, 0x39, 0x1b, 0x3c, 0x2a, 0x94, 0x68, 0xbf,
  0x05, 0x11, 0x7f, 0xbe, 0xe6, 0xde, 0x3c, 0x3c, 0x4e, 0x29, 0xde, 0xbe,
  0xfc, 0x66, 0xe9, 0xbc, 0x8f, 0x3f, 0x07, 0xbe, 0x22, 0x59, 0x06, 0xbf,
  0x44, 0x88, 0xe4, 0x3e, 0x23, 0x08, 0x1e, 0xbf, 0x97, 0x0d, 0xd4, 0xbd,
  0xc1, 0x64, 0x3b, 0xbe, 0x6a, 0x08, 0xf8, 0x3d, 0x74, 0xd5, 0x64, 0x3e,
  0x97, 0x10, 0x97, 0x3e, 0x0d, 0xce, 0x1c, 0xbe, 0xab, 0x78, 0x61, 0x3e,
  0x3f, 0x3b, 0xda, 0xbd, 0x2c, 0xe4, 0x2e, 0x3e, 0xd5, 0x9c, 0x14, 0xbf,
  0x9b, 0x57, 0xaa, 0xbe, 0x67, 0x13, 0x50, 0x3e, 0xb0, 0xd8, 0xc4, 0x3e,
  0x76, 0x84, 0x26, 0x3e, 0x3b, 0x4b, 0x65, 0xbe, 0x5d, 0x28, 0xb1, 0x3e,
  0xa4, 0xf2, 0xd5, 0xbb, 0x04, 0x5c, 0xde, 0xbe, 0x78, 0x33, 0x76, 0xbd,
  0x8b, 0x02, 0x13, 0x3f, 0x98, 0xe4, 0x26, 0x3e, 0xda, 0x7f, 0x8d, 0xbf,
  0xdb, 0x70, 0xda, 0xbe, 0x48, 0xe2, 0x9b, 0x3e, 0xfc, 0xfe, 0x14, 0x3e,
  0xe5, 0xd6, 0x09, 0x3f, 0x2a, 0x77, 0x89, 0xbe, 0x82, 0x49, 0x7b, 0xbe,
  0x03, 0xff, 0x5e, 0x3d, 0x81, 0x70, 0xa7, 0xbe, 0x74, 0x80, 0x11, 0xbe,
  0x45, 0x88, 0x27, 0x3f, 0x05, 0x31, 0xa6, 0xbd, 0x51, 0x3e, 0x8e, 0xbe,
  0x53, 0x1a, 0x10, 0x3f, 0x1a, 0x26, 0xaf, 0xbe, 0xd6, 0x6e, 0x30, 0xbf,
  0xee, 0x71, 0x41, 0xbf, 0x86, 0xbe, 0x3b, 0xbe, 0x16, 0x87, 0xc8, 0xbe,
  0xa8, 0xff, 0xa4, 0xbe, 0x1c, 0x94, 0xdb, 0x3e, 0x5b, 0x3b, 0x00, 0xbf,
  0xb9, 0xd8, 0x65, 0x3f, 0x95, 0xf9, 0xed, 0xbe, 0xae, 0xdf, 0x56, 0xbe,
  0x9e, 0x0a, 0xfd, 0x3e, 0xe3, 0x29, 0x75, 0x3e, 0xfa, 0xe0, 0xe8, 0xbe,
  0xdc, 0xa1, 0x41, 0xbf, 0x8e, 0xfa, 0xed, 0xbe, 0x53, 0xc9, 0x43, 0xbf,
  0x08, 0x71, 0x4c, 0xbe, 0x56, 0x38, 0x16, 0x3e, 0x32, 0x84, 0x83, 0x3d,
  0xc5, 0xf9, 0xb5, 0x3e, 0x35, 0x2f, 0xfb, 0xbe, 0xbe, 0xab, 0x49, 0x3f,
  0x8f, 0xdc, 0xfc, 0x3e, 0x78, 0x7b, 0x21, 0x3e, 0x9d, 0x21, 0x62, 0xbd,
  0xda, 0x9d, 0x37, 0xbe, 0x80, 0xd0, 0xd1, 0xbd, 0x60, 0x51, 0x98, 0x3e,
  0xf5, 0xf5, 0xc8, 0xbe, 0x99, 0xc2, 0xc1, 0xbe, 0x59, 0x54, 0x28, 0x3e,
  0x4f, 0x01, 0x8b, 0xbe, 0x80, 0x84, 0x52, 0x3e, 0x63, 0x13, 0xf5, 0x3e,
  0x7b, 0xc7, 0x30, 0xbe, 0x8e, 0xc8, 0x71, 0xbe, 0x21, 0x42, 0xf7, 0x3d,
  0x3d, 0xbf, 0xc3, 0x3e, 0xb7, 0xf1, 0x82, 0x3e, 0x03, 0xb3, 0x0a, 0x3f,
  0x5f, 0x64, 0x5e, 0xbe, 0xe5, 0xd3, 0xb5, 0x3d, 0x33, 0x08, 0x23, 0x3e,
  0x96, 0x96, 0x2a, 0xbf, 0x9b, 0x63, 0x77, 0x3f, 0xa7, 0x0a, 0xa8, 0x3e,
  0xce, 0xea, 0x01, 0x3e, 0x5f, 0x69, 0x63, 0xbf, 0x59, 0x3c, 0x4a, 0x3e,
  0x30, 0x30, 0x5b, 0x3d, 0xfe, 0x38, 0xb6, 0x3e, 0x84, 0x70, 0x79, 0x3d,
  0x8b, 0x90, 0x87, 0x3d, 0x71, 0x2c, 0x44, 0x3e, 0xa2, 0xc8, 0x40, 0xbf,
  0xcd, 0x82, 0x7e, 0x3c, 0xee, 0x08, 0xd8, 0xbd, 0x0f, 0x3c, 0xc8, 0x3e,
  0x51, 0x01, 0xc1, 0x3e, 0x1a, 0xff, 0x80, 0xbe, 0xcb, 0x08, 0x89, 0x3d,
  0x60, 0x8b, 0x07, 0x3f, 0x34, 0x09, 0x9d, 0x3d, 0x7b, 0x61, 0x09, 0x3f,
  0x12, 0x4d, 0x43, 0xbe, 0xe9, 0x81, 0x02, 0x3d, 0x30, 0x98, 0xcf, 0x3d,
  0x9d, 0xd5, 0x82, 0xbe, 0x86, 0x7f, 0x93, 0xbd, 0x3d, 0x36, 0x52, 0x3d,
  0xb1, 0xe7, 0x28, 0xbf, 0xff, 0x99, 0xf9, 0xbe, 0x51, 0x70, 0x4c, 0x3e,
  0xc0, 0x94, 0x16, 0x3f, 0xaa, 0xfc, 0xe2, 0x3e, 0x9d, 0x44, 0xf7, 0x3e,
  0xf8, 0x27, 0x6d, 0x3e, 0x0b, 0xa3, 0xd7, 0x3e, 0x8c, 0x46, 0x00, 0xbe,
  0x7a, 0xd1, 0xda, 0xbe, 0xeb, 0xa1, 0xba, 0xbe, 0xff, 0x9d, 0xee, 0x3d,
  0x65, 0x5a, 0x86, 0xbe, 0x22, 0x00, 0xaa, 0xbd, 0x56, 0xeb, 0xa7, 0xbe,
  0xd4, 0x05, 0x9a, 0x3e, 0xcb, 0x2c, 0x8c, 0x3d, 0x4a, 0xeb, 0x1f, 0x3f,
  0x78, 0xbe, 0x8f, 0x3d, 0x4b, 0xa5, 0x40, 0xbe, 0xbf, 0xb7, 0xcd, 0xbe,
  0xa6, 0x19, 0x05, 0x3e, 0x7b, 0x7f, 0xd5, 0x3c, 0x20, 0x0e, 0x47, 0xbf,
  0x3e, 0x47, 0xe8, 0x3d, 0xff, 0x93, 0xd3, 0xbe, 0x70, 0x8e, 0x53, 0xbd,
  0x64, 0xe7, 0x03, 0x3e, 0x41, 0xb1, 0x3c, 0x3e, 0xb4, 0xd0, 0x67, 0x3e,
  0x9c, 0x4e, 0x18, 0xbe, 0x9e, 0xbd, 0x88, 0xbe, 0x51, 0x12, 0x95, 0xbf,
  0x48, 0xea, 0x82, 0x3e, 0x1b, 0x98, 0x3e, 0x3f, 0x6f, 0xbb, 0x85, 0xbe,
  0x57, 0x01, 0x0d, 0xbe, 0x3c, 0x28, 0x48, 0x3f, 0xd6, 0xb3, 0xc6, 0xbe,
  0x93, 0x90, 0xae, 0x3c, 0x9a, 0x54, 0x0f, 0x3e, 0x6f, 0x01, 0x8d, 0x3d,
  0xee, 0x38, 0x03, 0x3f, 0x31, 0x81, 0xca, 0x3d, 0xe1, 0xe8, 0xa2, 0x3e,
  0xbb, 0xa1, 0x49, 0x3e, 0x40, 0x3a, 0x18, 0x3f, 0x9f, 0x8d, 0xa1, 0xbd,
  0x0c, 0x30, 0xbf, 0xbe, 0x4e, 0xbd, 0xb0, 0x3c, 0xd6, 0xc1, 0x8f, 0x3d,
  0x3b, 0x24, 0x85, 0x3e, 0x7a, 0xdb, 0xa5, 0xbe, 0x39, 0x06, 0xff, 0xbe,
  0xbd, 0x5d, 0x08, 0x3f, 0x91, 0x87, 0x7a, 0x3e, 0xa6, 0x67, 0x5b, 0x3d,
  0x76, 0x95, 0x15, 0xbe, 0x53, 0x87, 0x49, 0x3f, 0x4f, 0xf2, 0x6b, 0x3e,
  0xae, 0x99, 0x89, 0xbe, 0x79, 0x1b, 0x58, 0x3f, 0x79, 0xac, 0x14, 0x3e,
  0x02, 0xbb, 0x8d, 0x3d, 0xac, 0xf1, 0x57, 0x3e, 0x03, 0x8f, 0x9a, 0xbe,
  0x30, 0x91, 0x97, 0xbc, 0x10, 0x93, 0xdf, 0x3e, 0x48, 0xa4, 0xb4, 0xbc,
  0xe9, 0x78, 0x69, 0xbd, 0x10, 0x77, 0x00, 0x3e, 0xd2, 0x76, 0x43, 0xbe,
  0x1e, 0x91, 0x42, 0xbd, 0xf6, 0xc5, 0x0b, 0x3f, 0xb4, 0x24, 0xc6, 0xbe,
  0x8d, 0x18, 0xc3, 0x3e, 0xa0, 0xa2, 0xae, 0xbd, 0x8a, 0xc5, 0x79, 0xbe,
  0xc5, 0x01, 0x3a, 0x3f, 0x8f, 0x12, 0x24, 0x3f, 0xbc, 0xb4, 0x80, 0x3e,
  0x41, 0x7e, 0xd1, 0x3e, 0xa0, 0xe8, 0x29, 0x3f, 0xa1, 0x36, 0x4f, 0xbe,
  0x6a, 0x49, 0xfd, 0xbe, 0x73, 0x7a, 0x6f, 0x3f, 0x6a, 0xa0, 0x6c, 0xbe,
  0x57, 0xb8, 0x3f, 0x3f, 0xe3, 0x24, 0x41, 0xbd, 0xeb, 0xe0, 0xaf, 0xbd,
  0xd2, 0x19, 0x9f, 0x3d, 0x73, 0x83, 0x30, 0xbd, 0x56, 0x84, 0xee, 0x3d,
  0xc8, 0x12, 0xef, 0x3e, 0xba, 0x8f, 0xa0, 0x3e, 0x9b, 0xec, 0xd3, 0xbd,
  0xe1, 0x84, 0x19, 0x3d, 0xbc, 0x14, 0x48, 0x3f, 0x87, 0x99, 0x2d, 0xbe,
  0x66, 0xf5, 0x31, 0x3d, 0xfe, 0xcb, 0x7b, 0xbf, 0x03, 0xba, 0xaa, 0xbe,
  0x8c, 0xd6, 0xa7, 0x3d, 0xef, 0x9d, 0x35, 0x3f, 0x2d, 0x13, 0xbd, 0xbe,
  0xfc, 0xf8, 0x90, 0xbc, 0x6c, 0x5e, 0x42, 0x3f, 0x43, 0x1d, 0x86, 0x3e,
  0x16, 0xfa, 0x8b, 0xbe, 0x4f, 0x83, 0x5f, 0x3f, 0x9b, 0xa5, 0xa9, 0xbe,
  0x46, 0xa6, 0x03, 0x3f, 0x54, 0x57, 0xe8, 0x3d, 0x81, 0xcf, 0x06, 0xbf,
  0xec, 0x01, 0x57, 0x3f, 0x7c, 0xdf, 0x3c, 0x3e, 0xde, 0xa8, 0xa6, 0xbe,
  0xfb, 0xc6, 0x60, 0xbe, 0xac, 0x9d, 0x09, 0x3f, 0x22, 0xff, 0xa3, 0x3d,
  0xe2, 0x44, 0xe1, 0x3d, 0x76, 0xb8, 0xea, 0x3f, 0xdb, 0x01, 0x48, 0xbe,
  0x5c, 0x7e, 0xfa, 0xbd, 0x2f, 0x14, 0xb4, 0x3e, 0xbc, 0xe5, 0x32, 0xbe,
  0x1f, 0xd2, 0x03, 0x3f, 0x09, 0x22, 0x7d, 0x3d, 0x94, 0x0c, 0x91, 0xbd,
  0xa3, 0x58, 0xd1, 0x3c, 0x5c, 0x0b, 0xca, 0x3e, 0x69, 0x14, 0xa2, 0x3d,
  0x14, 0x3f, 0x47, 0xbd, 0xe5, 0x09, 0x69, 0x3f, 0x06, 0x48, 0x0b, 0x3d,
  0xb4, 0xaf, 0x40, 0x3e, 0xfa, 0xec, 0x44, 0x3f, 0x6e, 0xe8, 0x0d, 0xbf,
  0x7c, 0xa2, 0x0a, 0x3f, 0xea, 0x53, 0xe2, 0x3e, 0xe2, 0x8e, 0x1e, 0x3f,
  0x86, 0x06, 0xf6, 0x3e, 0xb4, 0xd6, 0x2e, 0x3e, 0xd0, 0x4d, 0x15, 0x3d,
  0x28, 0x0d, 0xf0, 0x3e, 0xd5, 0xd8, 0xbe, 0x3f, 0x64, 0x8c, 0x62, 0x3e,
  0x69, 0x4e, 0x0d, 0x3f, 0xf9, 0x7b, 0xd1, 0xbd, 0xfd, 0x9b, 0x0e, 0xbf,
  0x4e, 0x7a, 0xba, 0x3e, 0xea, 0xc5, 0xdd, 0x3e, 0x2e, 0x9a, 0x2d, 0x3f,
  0x4e, 0x6a, 0xa7, 0xbe, 0x20, 0xc3, 0xdd, 0x3e, 0x5c, 0xbe, 0xb0, 0x3e,
  0xa9, 0xc0, 0xec, 0x3e, 0x82, 0xa9, 0x03, 0x3f, 0x2c, 0x36, 0x1d, 0x3f,
  0x0d, 0x18, 0xd3, 0x3e, 0xe0, 0x91, 0x8d, 0x3f, 0xa0, 0xfc, 0x2b, 0xbf,
  0x27, 0x88, 0x6e, 0x3e, 0x85, 0x81, 0x33, 0x3e, 0xa2, 0x0e, 0x97, 0x3f,
  0xfd, 0x77, 0xc2, 0xbe, 0xa1, 0x04, 0x0b, 0xbf, 0xd4, 0xb3, 0x1d, 0xbc,
  0x94, 0x5f, 0x05, 0x3f, 0x83, 0x5a, 0x96, 0xbd, 0x83, 0x09, 0xab, 0xbd,
  0x7b, 0x73, 0x13, 0xbf, 0xe4, 0xdf, 0x58, 0x3f, 0x7c, 0xfe, 0x23, 0xbf,
  0x51, 0x85, 0xc8, 0x3d, 0xbc, 0x9e, 0x3a, 0x3e, 0xf0, 0x7d, 0x05, 0x40,
  0x45, 0x87, 0x8b, 0xbe, 0xfd, 0xdd, 0xcb, 0xbe, 0x9b, 0x4a, 0xa1, 0xbe,
  0x3d, 0x75, 0x61, 0x3f, 0x8f, 0xfa, 0x72, 0xbe, 0xbc, 0x7d, 0xa0, 0xbd,
  0xb3, 0x95, 0x0e, 0xbf, 0xf3, 0xec, 0xa5, 0x3f, 0x56, 0x57, 0xab, 0xbe,
  0x88, 0xac, 0x27, 0xbe, 0xbe, 0x8d, 0x25, 0x3f, 0xa7, 0x98, 0x86, 0x3f,
  0xfb, 0xe4, 0x0f, 0x3f, 0x7e, 0x95, 0x52, 0x3e, 0xe8, 0xd0, 0xe6, 0xbd,
  0x25, 0x2d, 0xb4, 0xbe, 0x62, 0xa3, 0x8b, 0xbe, 0x01, 0x35, 0x89, 0xbe,
  0x47, 0xb1, 0x6f, 0xbe, 0x20, 0x7b, 0x06, 0x3f, 0x21, 0x95, 0x9d, 0xbe,
  0xce, 0xa7, 0x1d, 0xbf, 0x2c, 0x50, 0xb6, 0xbe, 0xeb, 0xd6, 0xe7, 0x3f,
  0x0d, 0x4d, 0xab, 0x3d, 0xac, 0x04, 0x2f, 0x3f, 0xa6, 0x0b, 0xd7, 0xbe,
  0x7a, 0xdb, 0x91, 0xbd, 0xed, 0xbc, 0x79, 0xbe, 0xc1, 0xcb, 0x78, 0xbe,
  0x11, 0x0c, 0x47, 0xbf, 0x41, 0x9e, 0x92, 0x3e, 0x92, 0xd0, 0x93, 0x3e,
  0x3e, 0xa2, 0x05, 0xbf, 0xa1, 0x93, 0xf6, 0xbe, 0xa8, 0xa2, 0xc3, 0x3f,
  0x15, 0x2e, 0x15, 0x3f, 0x20, 0x14, 0xcc, 0x3e, 0xb6, 0x77, 0x29, 0x3f,
  0x4b, 0x44, 0x7b, 0x3f, 0x52, 0x5e, 0x22, 0xbf, 0x6a, 0xf5, 0x00, 0xbf,
  0x50, 0xc9, 0x9e, 0xbe, 0xd1, 0x3f, 0x1b, 0xbf, 0x51, 0x6a, 0x8e, 0x3e,
  0x52, 0xd4, 0x44, 0xbf, 0xd3, 0x3d, 0x12, 0xbe, 0xef, 0x42, 0x1c, 0x3f,
  0xd0, 0xd8, 0x62, 0x3e, 0x79, 0xaf, 0x14, 0x3f, 0x25, 0x04, 0xed, 0x3e,
  0x01, 0x8a, 0xe3, 0x3e, 0x75, 0x15, 0x94, 0x3e, 0xad, 0xdf, 0x41, 0x3d,
  0x61, 0x98, 0xce, 0xbe, 0xec, 0x0c, 0x29, 0xbf, 0x6d, 0xb4, 0x9f, 0x3e,
  0xd1, 0x75, 0x61, 0xbf, 0x49, 0x67, 0xa5, 0x3d, 0xa8, 0x7f, 0xb4, 0x3f,
  0x7f, 0xf4, 0xaa, 0x3d, 0xd6, 0x7f, 0x2d, 0x3e, 0xbb, 0xb7, 0x80, 0x3f,
  0xdc, 0x75, 0x73, 0xbd, 0xd8, 0x60, 0x78, 0xbe, 0xec, 0xbf, 0xe6, 0xbc,
  0xac, 0x5c, 0x75, 0xbe, 0x7d, 0x8a, 0xe3, 0x3d, 0xd9, 0xd3, 0x41, 0x3e,
  0x0c, 0xb6, 0xc4, 0xbe, 0xcb, 0x95, 0x25, 0x3f, 0x50, 0xa8, 0x8f, 0xbe,
  0x1e, 0x2d, 0xc6, 0xbd, 0x6a, 0x44, 0x2e, 0x3e, 0x7e, 0xb0, 0xae, 0xbd,
  0x77, 0x55, 0x7b, 0x3e, 0x36, 0x0f, 0x5b, 0x3e, 0x8c, 0xda, 0x29, 0x3e,
  0xc4, 0xbe, 0x00, 0xbf, 0x04, 0xd7, 0x0d, 0xbf, 0xf6, 0xfe, 0x51, 0x3e,
  0x8e, 0x05, 0xc9, 0xbe, 0x35, 0x41, 0x88, 0x3f, 0xbc, 0xb1, 0xa7, 0x3e,
  0xd3, 0xde, 0x25, 0x3e, 0x7f, 0x65, 0xd5, 0xbe, 0xb1, 0x8b, 0x3b, 0xbd,
  0xcd, 0x33, 0xa5, 0x3e, 0xc2, 0xee, 0x4c, 0xbe, 0x08, 0xe5, 0x84, 0x3e,
  0xbd, 0x4b, 0x1d, 0xbf, 0xe0, 0x02, 0x35, 0xb8, 0x69, 0x55, 0x20, 0x3e,
  0xa4, 0xaf, 0x39, 0xbe, 0x49, 0xd6, 0xd8, 0x3e, 0x0e, 0x0a, 0xa6, 0x3e,
  0xfc, 0xc9, 0x6f, 0xbe, 0x66, 0xa9, 0x49, 0x3f, 0x12, 0x9e, 0x15, 0xbe,
  0x79, 0xfb, 0x0d, 0x3e, 0x8b, 0x6f, 0xbf, 0xbe, 0x81, 0x07, 0xdb, 0x3d,
  0xdc, 0x46, 0x0f, 0xbe, 0xf9, 0xd3, 0xeb, 0x3e, 0x64, 0x7b, 0x17, 0xbe,
  0x9c, 0x7b, 0xbb, 0xbe, 0x5d, 0xdb, 0x72, 0x3f, 0x5a, 0xba, 0xae, 0xbe,
  0x41, 0x42, 0xc4, 0xbe, 0xef, 0xe3, 0x5a, 0xbe, 0x57, 0xda, 0x14, 0xbf,
  0x61, 0x8e, 0x63, 0xbe, 0xcc, 0x23, 0x37, 0xbe, 0x3a, 0x3e, 0xb8, 0x3d,
  0x54, 0xa0, 0x9a, 0xbe, 0x54, 0xf8, 0x05, 0x3f, 0x7a, 0x1a, 0x5a, 0x3e,
  0x34, 0xf9, 0x23, 0x3e, 0x3e, 0x80, 0x24, 0x3d, 0xd1, 0xc9, 0x7e, 0x3d,
  0x25, 0x80, 0x01, 0xbf, 0x7d, 0x37, 0xcf, 0x3e, 0xea, 0x34, 0x5e, 0xbf,
  0x9b, 0x34, 0x00, 0xbf, 0x47, 0x74, 0x13, 0x3f, 0x03, 0x0e, 0x25, 0xbd,
  0x7d, 0xac, 0x95, 0x3e, 0xed, 0x93, 0xa2, 0x3e, 0xea, 0x7b, 0x0c, 0x3e,
  0x24, 0x97, 0x22, 0xbf, 0x7e, 0x8e, 0xb8, 0x3e, 0xa7, 0x7b, 0xf1, 0xbe,
  0xf6, 0xae, 0x87, 0x3e, 0xb3, 0x3f, 0x7b, 0xbe, 0xf6, 0x16, 0x39, 0xbf,
  0xb4, 0xdb, 0x9f, 0x3c, 0xa0, 0xf8, 0x31, 0xbe, 0x60, 0x18, 0xe0, 0x3e,
  0x46, 0xd8, 0xed, 0xbe, 0x3b, 0xaa, 0x82, 0xbe, 0x86, 0xe6, 0xcd, 0x3e,
  0x3a, 0xbe, 0x56, 0xbd, 0x59, 0x3b, 0xf7, 0xbc, 0x99, 0x6f, 0x83, 0xbd,
  0x9b, 0x8e, 0x93, 0x3e, 0xe7, 0x3d, 0x8c, 0xbe, 0xe3, 0x48, 0xdc, 0xbe,
  0xe9, 0x3c, 0x27, 0xbe, 0x43, 0x5a, 0x30, 0x3e, 0x00, 0x7c, 0x8e, 0xbe,
  0x91, 0xad, 0x59, 0xbc, 0xa8, 0x81, 0x10, 0xbf, 0xf9, 0xa7, 0x08, 0xbe,
  0x7d, 0x67, 0xbf, 0xbe, 0x52, 0xbf, 0x9a, 0x3e, 0x53, 0x6f, 0x84, 0x3e,
  0xcb, 0x76, 0xb4, 0x3e, 0xf9, 0x26, 0x07, 0xbf, 0x79, 0xa2, 0x78, 0x3e,
  0xb8, 0x5f, 0xb6, 0x3d, 0x52, 0x45, 0xac, 0x3e, 0x1d, 0xc1, 0xac, 0x3d,
  0x9e, 0xb7, 0x14, 0x3d, 0x9b, 0x19, 0x88, 0xbe, 0x16, 0xd9, 0x0c, 0x3f,
  0x38, 0xcd, 0xe5, 0x3e, 0x57, 0xed, 0x74, 0xbe, 0x0c, 0x8c, 0xd1, 0xbd,
  0x80, 0xcf, 0x2d, 0xbd, 0x03, 0xfd, 0xf4, 0xbd, 0x41, 0xf1, 0x73, 0x3e,
  0xac, 0xfc, 0x22, 0x3f, 0xe0, 0x53, 0x2c, 0x3f, 0x86, 0x8f, 0x9e, 0xbe,
  0x4a, 0x8e, 0x68, 0x3e, 0x4a, 0xfd, 0xcf, 0xbd, 0xdc, 0x9d, 0x2a, 0xbe,
  0x59, 0xb6, 0x69, 0xbe, 0x77, 0xb0, 0x2e, 0x3f, 0xad, 0x30, 0x1a, 0x3f,
  0x78, 0x72, 0xda, 0x3e, 0xc2, 0x90, 0xcc, 0x3c, 0x13, 0xbb, 0xc9, 0x3e,
  0x4f, 0xe7, 0x11, 0x3f, 0x21, 0x9f, 0x8f, 0x3e, 0x91, 0x2a, 0xd1, 0xbe,
  0xc8, 0x83, 0x9b, 0x3e, 0xfc, 0xb2, 0x03, 0xbc, 0xdb, 0x65, 0x85, 0x3f,
  0x28, 0x76, 0x58, 0x3d, 0xd9, 0xae, 0xb6, 0x3e, 0x4e, 0xb6, 0x66, 0x3e,
  0x5e, 0x71, 0x6b, 0x3e, 0xcc, 0xda, 0x01, 0x3e, 0xc1, 0xa4, 0x79, 0xbe,
  0x05, 0x05, 0x97, 0x3f, 0xf8, 0x25, 0x17, 0xbe, 0xae, 0x4d, 0x26, 0xbf,
  0x55, 0xfc, 0xdf, 0x3d, 0x36, 0x2c, 0xb9, 0x3d, 0x30, 0x43, 0x85, 0x3e,
  0xfd, 0xea, 0x55, 0x3e, 0x7f, 0x93, 0xf9, 0x3c, 0xbb, 0x5e, 0x1e, 0x3e,
  0x68, 0x88, 0xf8, 0xbe, 0x85, 0x2f, 0xa6, 0xbe, 0xa4, 0xed, 0xa8, 0x3e,
  0x40, 0x65, 0x0a, 0x3f, 0x43, 0x3d, 0x90, 0xbe, 0x4b, 0x70, 0xfd, 0xbe,
  0xde, 0xa2, 0x8f, 0x3f, 0xf0, 0x27, 0xe9, 0xbe, 0x1f, 0xa6, 0x27, 0x3f,
  0x75, 0x21, 0xc8, 0xbe, 0xbd, 0x03, 0x16, 0x3d, 0x0b, 0xda, 0x12, 0x3f,
  0xc1, 0xbe, 0xcd, 0xbe, 0x8e, 0x16, 0x9b, 0xbe, 0xcb, 0x62, 0x51, 0x3f,
  0x55, 0xfb, 0x62, 0x3e, 0x4b, 0xbc, 0x48, 0xbe, 0xb2, 0x26, 0x89, 0x3d,
  0x32, 0x66, 0x4a, 0x39, 0x33, 0xf4, 0x16, 0xbe, 0x64, 0xc9, 0xdc, 0xbd,
  0x44, 0x22, 0x96, 0x3e, 0x05, 0xf7, 0xcb, 0x3e, 0x52, 0x35, 0x94, 0xbe,
  0xdb, 0x99, 0xc9, 0x3d, 0xfa, 0x42, 0xa1, 0xbd, 0x69, 0xcd, 0x94, 0x3e,
  0x1f, 0x8c, 0xb5, 0x3d, 0xe8, 0x51, 0x6d, 0x3d, 0x7d, 0xa2, 0x12, 0xbe,
  0x0a, 0xc5, 0xa5, 0xbc, 0xa5, 0x9a, 0x83, 0x3e, 0xce, 0x3d, 0x1a, 0xbd,
  0x2a, 0xf0, 0xe3, 0x3d, 0x86, 0x79, 0xdf, 0xbd, 0xca, 0x02, 0x8c, 0xbf,
  0xed, 0x8d, 0xc1, 0x3e, 0xf2, 0x6e, 0xb8, 0x3e, 0xf1, 0x77, 0xc5, 0x3c,
  0x83, 0x1e, 0x9c, 0xbd, 0x00, 0xf5, 0xf4, 0xbd, 0x7c, 0x9c, 0x36, 0xbd,
  0xa4, 0x43, 0x56, 0x3d, 0x3b, 0x66, 0x4e, 0xbd, 0x87, 0xcd, 0x69, 0xbc,
  0xb4, 0x67, 0x06, 0xbf, 0x4d, 0xac, 0xa7, 0xbe, 0xc9, 0x61, 0x65, 0xbe,
  0x8c, 0x21, 0x9e, 0x3d, 0x49, 0x28, 0x85, 0x3e, 0x59, 0x06, 0x67, 0x3d,
  0x4b, 0xc8, 0xdc, 0xbe, 0x8b, 0xb1, 0xb2, 0xbe, 0x54, 0x8a, 0xfa, 0x3d,
  0xc2, 0x01, 0x2f, 0x3f, 0x46, 0xba, 0xb3, 0xbd, 0x68, 0x91, 0x03, 0xbf,
  0xe9, 0x9d, 0x7f, 0xbe, 0xf6, 0xd3, 0x28, 0x3e, 0x14, 0xa5, 0x2b, 0xbe,
  0x92, 0x12, 0x11, 0xbf, 0x41, 0xd8, 0xde, 0x3d, 0x71, 0x54, 0xde, 0x3e,
  0xe2, 0xce, 0xd3, 0xbe, 0x98, 0x48, 0x82, 0x3e, 0x8c, 0x0d, 0x9e, 0xbd,
  0x68, 0x41, 0x23, 0x3d, 0x68, 0xad, 0xc3, 0xbe, 0xa9, 0x99, 0x27, 0x3d,
  0x6a, 0x64, 0xb3, 0xbd, 0xb2, 0x91, 0xdf, 0x3e, 0xd6, 0x95, 0xfb, 0xbd,
  0x29, 0x98, 0x26, 0xbe, 0x4d, 0xf6, 0xe8, 0xbd, 0x39, 0x00, 0x49, 0x3e,
  0x1d, 0x0a, 0x80, 0xbd, 0x3c, 0x26, 0xe7, 0x3e, 0x69, 0x35, 0xfa, 0xbd,
  0xd6, 0x78, 0x4c, 0x3e, 0xc8, 0x88, 0xee, 0xbe, 0x12, 0x83, 0xc2, 0xbe,
  0x0b, 0xa0, 0xd7, 0x3e, 0xb8, 0x1d, 0xc2, 0x3e, 0x00, 0x9f, 0xa1, 0x3e,
  0x91, 0x62, 0x3b, 0x3f, 0xe5, 0xc7, 0xdc, 0x3d, 0x3e, 0x80, 0x4b, 0xbe,
  0xec, 0xd3, 0xff, 0xbd, 0xa8, 0xf0, 0xe5, 0x3d, 0x2c, 0xed, 0x01, 0x3d,
  0x4b, 0x8f, 0x9f, 0x3e, 0xf5, 0x11, 0xe7, 0xbd, 0x71, 0x22, 0x4d, 0xbf,
  0xbc, 0x62, 0x4e, 0xbe, 0x0a, 0x76, 0x59, 0x3e, 0xf7, 0x65, 0xdf, 0xbd,
  0x7b, 0x86, 0x82, 0xbe, 0x54, 0xe3, 0x2a, 0x3e, 0x6e, 0xc4, 0xe0, 0x3e,
  0x70, 0xd8, 0x16, 0xbe, 0xee, 0xba, 0xad, 0x3e, 0xd0, 0x43, 0xa4, 0xbe,
  0x0e, 0xf4, 0x6b, 0x3e, 0xbc, 0xd1, 0x20, 0xbf, 0x90, 0x6f, 0x1b, 0xbf,
  0xb7, 0x3d, 0x61, 0x3e, 0xd6, 0x98, 0x22, 0x3f, 0x2d, 0xae, 0x9f, 0xbe,
  0x29, 0x08, 0x4d, 0xbf, 0x4b, 0xcc, 0x7d, 0x3e, 0x07, 0xca, 0x98, 0x3e,
  0x62, 0x20, 0x4b, 0xbe, 0xee, 0xeb, 0x65, 0x3f, 0x40, 0x89, 0x45, 0xbf,
  0x43, 0xe9, 0xae, 0x3e, 0xab, 0x22, 0xdb, 0x3d, 0x3e, 0x6d, 0xfc, 0xbe,
  0x70, 0x9a, 0x53, 0x3f, 0x74, 0x70, 0x77, 0x3e, 0xc7, 0x52, 0x38, 0x3d,
  0x50, 0xd0, 0x45, 0xbf, 0xb2, 0xab, 0x34, 0x3e, 0xc5, 0x36, 0x2a, 0x3e,
  0x27, 0x71, 0x29, 0xbc, 0x39, 0x6c, 0x14, 0x40, 0x70, 0x72, 0xfc, 0xbd,
  0x69, 0xad, 0x8c, 0xbe, 0xc1, 0xff, 0x1b, 0xbf, 0x19, 0x71, 0xfa, 0x3c,
  0x9e, 0xb0, 0x4d, 0x3f, 0xd8, 0x76, 0x97, 0xbd, 0x77, 0x5d, 0x8f, 0xbd,
  0xf1, 0xeb, 0x1a, 0xbe, 0x8f, 0xc8, 0x18, 0x3e, 0xa4, 0xf7, 0x2c, 0xbe,
  0x40, 0xbf, 0x2e, 0x3f, 0xc0, 0x27, 0x66, 0x3f, 0xc0, 0xa3, 0xf5, 0x3e,
  0x59, 0x45, 0xca, 0xba, 0x85, 0xed, 0x56, 0xbb, 0x62, 0xfa, 0xe9, 0xbe,
  0x7e, 0x9d, 0x89, 0x3e, 0xc7, 0xfd, 0xf3, 0xbd, 0x46, 0xd1, 0x23, 0x3f,
  0xf7, 0xfd, 0x4b, 0xbf, 0xae, 0x27, 0x3c, 0x3e, 0xc5, 0xa2, 0x23, 0xbe,
  0xc9, 0xc4, 0xba, 0x3e, 0x19, 0xb9, 0x8b, 0x3f, 0xc3, 0x41, 0x3c, 0x3f,
  0x5b, 0x3a, 0xdb, 0xbe, 0x83, 0x18, 0xb6, 0xbe, 0xdf, 0x42, 0x0e, 0xbf,
  0xf8, 0xad, 0xd0, 0x3e, 0x6f, 0x8d, 0x8b, 0xbe, 0xfb, 0x35, 0x7f, 0x3f,
  0xd5, 0xe1, 0xa3, 0xbf, 0xae, 0x3e, 0x28, 0xbe, 0x93, 0xaf, 0xb8, 0xbe,
  0x5d, 0xa9, 0x9c, 0x3e, 0xe9, 0x3f, 0x01, 0x3f, 0xed, 0xe2, 0x1d, 0x3f,
  0x44, 0xfd, 0xa9, 0xbe, 0x95, 0x07, 0x40, 0x3f, 0x43, 0x8c, 0x20, 0xbf,
  0x59, 0x50, 0x24, 0xbe, 0xb3, 0x0b, 0xa6, 0x3d, 0xc9, 0x71, 0x73, 0x3f,
  0x7c, 0x03, 0xc8, 0xbe, 0x84, 0x0a, 0xef, 0xbe, 0x19, 0x23, 0x35, 0xbf,
  0x12, 0x94, 0xbf, 0x3e, 0x38, 0xb7, 0xa8, 0xbc, 0x8d, 0x3a, 0x11, 0x3e,
  0x2b, 0x1a, 0x31, 0xbf, 0x6f, 0xab, 0x86, 0x3e, 0x57, 0xbc, 0x91, 0xbf,
  0x50, 0x55, 0x77, 0x3d, 0x0d, 0x36, 0x8a, 0x3e, 0x7b, 0x4c, 0xdf, 0x3f,
  0x42, 0x4d, 0x59, 0xbe, 0x59, 0x39, 0x08, 0xbf, 0x1c, 0x06, 0x45, 0xbf,
  0xc9, 0xc1, 0xa6, 0x3f, 0x40, 0xc7, 0x7c, 0xbe, 0x10, 0x47, 0x06, 0x3f,
  0xc0, 0x25, 0xed, 0xbe, 0x2a, 0x40, 0x3e, 0x3f, 0x8b, 0xa4, 0x1c, 0xbe,
  0x9e, 0x6c, 0xa0, 0xbd, 0xb2, 0xe7, 0xcd, 0x3e, 0x65, 0xb8, 0xe2, 0x3e,
  0x98, 0xa4, 0x0f, 0x3f, 0xa0, 0x2d, 0x5f, 0xbe, 0xb3, 0x3f, 0x6c, 0xbe,
  0x7b, 0x7a, 0xad, 0x3c, 0x78, 0xee, 0x38, 0xbd, 0xd0, 0xd5, 0x3e, 0x3f,
  0x10, 0x53, 0xc5, 0xbe, 0xaa, 0x4f, 0x88, 0x3e, 0xf3, 0x07, 0x35, 0xbd,
  0x99, 0x69, 0x0c, 0xbe, 0xcb, 0xf2, 0x17, 0xbe, 0x12, 0x38, 0x83, 0x3e,
  0x5b, 0xb0, 0x7d, 0x3e, 0xff, 0xab, 0x0c, 0x3e, 0x91, 0xd5, 0x86, 0x3e,
  0x87, 0x5c, 0x22, 0x3e, 0x14, 0x2b, 0x60, 0xbe, 0x67, 0xc7, 0x1d, 0xbf,
  0xe9, 0xda, 0xb6, 0xbe, 0x38, 0x41, 0x12, 0x3f, 0xa4, 0x30, 0xc7, 0xbc,
  0x73, 0x0b, 0x27, 0x3f, 0xe3, 0x86, 0x03, 0xbe, 0x9e, 0x55, 0xd0, 0x3e,
  0x50, 0x6a, 0x38, 0x3f, 0x90, 0xb3, 0x97, 0x3e, 0xc4, 0xfe, 0xad, 0x3e,
  0xa1, 0x6f, 0x0f, 0x3d, 0xee, 0xc7, 0xe2, 0xbe, 0x11, 0xa9, 0x2d, 0xbf,
  0x6f, 0x43, 0x5d, 0xbe, 0xe0, 0xcd, 0x51, 0x3c, 0x34, 0x9b, 0x38, 0x3d,
  0x98, 0x2b, 0x43, 0xbe, 0x00, 0x9e, 0xbe, 0xbc, 0x5d, 0xf2, 0x33, 0x3c,
  0xbc, 0x04, 0xdb, 0xbe, 0x8a, 0x09, 0xf5, 0x3d, 0x81, 0x2a, 0xb2, 0x3e,
  0x30, 0x0d, 0x9b, 0xbd, 0x80, 0xaa, 0x07, 0x3f, 0x13, 0x7e, 0xb0, 0xbe,
  0xcf, 0x62, 0x93, 0xbd, 0x80, 0xdb, 0xeb, 0xbe, 0x0f, 0x8a, 0x2b, 0xbe,
  0x36, 0x80, 0xb9, 0xbe, 0x90, 0xff, 0xf8, 0xbd, 0xd7, 0x84, 0x55, 0x3e,
  0xee, 0xbd, 0x8f, 0x3e, 0xc4, 0x38, 0x36, 0xbe, 0x1e, 0xf0, 0x01, 0x3f,
  0xc8, 0xc8, 0xb8, 0xbe, 0x82, 0xac, 0x6b, 0xbd, 0xb1, 0xc0, 0x9e, 0xbc,
  0xad, 0xab, 0x8e, 0xbe, 0x0a, 0xa9, 0x72, 0xbe, 0x6e, 0x62, 0xb5, 0xbb,
  0xf5, 0xd0, 0xda, 0xbe, 0x2a, 0x95, 0xa5, 0xbc, 0x42, 0xda, 0x6c, 0xbe,
  0x00, 0x03, 0x46, 0x3e, 0x0f, 0x06, 0x11, 0xbf, 0xa2, 0xab, 0x1f, 0xbe,
  0xcb, 0x36, 0xcb, 0x3d, 0x7f, 0x1d, 0x9d, 0x3e, 0x2e, 0xa5, 0x05, 0x3c,
  0x75, 0x19, 0x0d, 0x3e, 0x22, 0xc1, 0xea, 0xbe, 0x06, 0xe7, 0x27, 0x3e,
  0x49, 0xa0, 0x02, 0xbf, 0x17, 0x31, 0x3b, 0xbe, 0x2e, 0x0a, 0x39, 0xbe,
  0x51, 0xcc, 0x6b, 0xbd, 0x2d, 0x3f, 0xed, 0xbe, 0x67, 0x62, 0x60, 0xbe,
  0xb0, 0x2c, 0xc9, 0x3e, 0x56, 0x5c, 0x7c, 0xbe, 0xfb, 0x2a, 0xa0, 0xbd,
  0xf3, 0xc3, 0xea, 0xbd, 0xc2, 0x8a, 0x5b, 0x3e, 0xc0, 0x6c, 0x87, 0x3e,
  0xa7, 0x26, 0xee, 0x3a, 0x76, 0xec, 0xa0, 0x3e, 0xe1, 0x66, 0xe0, 0x3e,
  0xe0, 0x78, 0xa8, 0xbe, 0xe1, 0x18, 0xec, 0x3d, 0x95, 0xfe, 0x1a, 0x3e,
  0x29, 0x99, 0x1d, 0xbe, 0x2d, 0x05, 0x3b, 0xbe, 0x62, 0x27, 0x1c, 0xbf,
  0x5f, 0x69, 0x62, 0x3f, 0xa6, 0x40, 0x37, 0x3e, 0x96, 0x3f, 0x83, 0x3d,
  0x46, 0x22, 0x01, 0xbf, 0xc5, 0xcf, 0xda, 0x3e, 0x72, 0xe9, 0xaa, 0x3d,
  0x70, 0xf5, 0x3c, 0xbe, 0x70, 0x2f, 0xc6, 0xbe, 0x48, 0x82, 0xba, 0xbe,
  0x54, 0xf6, 0x99, 0xbe, 0xd8, 0x82, 0x1c, 0xbf, 0xb8, 0x48, 0x3b, 0xbe,
  0xd8, 0xd7, 0xf9, 0xbe, 0x3c, 0xcb, 0xfd, 0x3e, 0xc8, 0x8b, 0x53, 0x3e,
  0xff, 0xc1, 0x11, 0x3c, 0xeb, 0xf2, 0x81, 0x3d, 0x41, 0xff, 0xa9, 0x3e,
  0x81, 0x90, 0xc2, 0xbe, 0xb5, 0x87, 0xe3, 0xbd, 0xfc, 0xd4, 0x0b, 0xbf,
  0xc7, 0xc4, 0x32, 0xbf, 0x81, 0x17, 0xc0, 0x3e, 0xe2, 0x63, 0x96, 0xbd,
  0x24, 0x21, 0xe1, 0x3e, 0x90, 0x7a, 0x3b, 0x3d, 0x00, 0xe9, 0xe0, 0x3e,
  0x86, 0xf4, 0x0a, 0xbf, 0x59, 0xe5, 0x80, 0xbd, 0x07, 0xd7, 0x67, 0xbe,
  0x97, 0x82, 0xe0, 0x3e, 0x6c, 0x2f, 0x8c, 0xbe, 0x66, 0xe6, 0xfb, 0xbe,
  0x58, 0x07, 0xf5, 0x3c, 0x3c, 0x18, 0x46, 0xbe, 0xea, 0xed, 0x5e, 0x3e,
  0x97, 0x9e, 0x41, 0xbe, 0x25, 0xee, 0x16, 0xbe, 0xa9, 0xed, 0x11, 0x3f,
  0xad, 0xd1, 0xfa, 0x3b, 0x4c, 0xf2, 0x02, 0xbf, 0xfb, 0x40, 0x92, 0xbe,
  0x2b, 0x20, 0x85, 0xbe, 0xea, 0x2d, 0xac, 0x3d, 0x6a, 0x32, 0x85, 0xbd,
  0xfe, 0x4b, 0x61, 0xbe, 0x2c, 0x13, 0x07, 0xbd, 0x36, 0xfc, 0xa9, 0x3e,
  0x11, 0x87, 0x6f, 0xbe, 0x4d, 0x90, 0x2b, 0xbe, 0xdf, 0x60, 0x74, 0x3d,
  0x1f, 0xdb, 0x1a, 0xbe, 0x16, 0x64, 0xc3, 0xbd, 0xe3, 0x42, 0x1c, 0xbe,
  0x9d, 0x16, 0xc1, 0x3e, 0x94, 0x8a, 0x15, 0x3e, 0x0d, 0x6a, 0x97, 0x3e,
  0x27, 0x34, 0xc7, 0xbd, 0x03, 0x00, 0x15, 0xbe, 0xc2, 0x25, 0xae, 0x3e,
  0xc3, 0x27, 0xb9, 0xbe, 0xde, 0xe2, 0x58, 0xbd, 0x34, 0xc5, 0x8e, 0x3e,
  0x4f, 0xdf, 0x6b, 0x3f, 0xe3, 0xa4, 0x0b, 0xbe, 0x50, 0xc0, 0x95, 0x3c,
  0xd2, 0x7d, 0x8b, 0xbe, 0x65, 0xb2, 0xef, 0x3d, 0x94, 0x37, 0xb2, 0x3d,
  0xb8, 0x15, 0xd4, 0x3e, 0x6d, 0x6b, 0xea, 0xbd, 0x0b, 0x34, 0x03, 0xbf,
  0x10, 0xce, 0x23, 0xbe, 0x7a, 0x0c, 0x47, 0xbd, 0x0b, 0x33, 0x5e, 0x3d,
  0x30, 0xa4, 0xe9, 0xbd, 0x30, 0x25, 0x52, 0x3e, 0xc9, 0x7c, 0x95, 0x3e,
  0x69, 0xfb, 0x01, 0x3f, 0x9a, 0xe4, 0x0a, 0xbc, 0x67, 0xbd, 0x93, 0x3e,
  0x85, 0x87, 0x3d, 0x3e, 0x89, 0x02, 0xf4, 0x3d, 0x33, 0xfe, 0x13, 0xbe,
  0xc5, 0xaa, 0x29, 0xbe, 0xcb, 0x03, 0xbf, 0x3d, 0x66, 0xfd, 0x2e, 0x3f,
  0x84, 0xc5, 0xd5, 0x3d, 0x93, 0x16, 0x5d, 0x3d, 0xae, 0xe7, 0xb3, 0x3d,
  0x7b, 0xec, 0x3d, 0xbe, 0xb8, 0xea, 0x82, 0xbe, 0xff, 0x19, 0x75, 0xbf,
  0x1c, 0x75, 0xe7, 0x3d, 0x16, 0x58, 0xb2, 0xbe, 0xf1, 0xfa, 0xbe, 0xbd,
  0xca, 0x88, 0x51, 0x3d, 0x95, 0x03, 0x56, 0x3e, 0x21, 0x4d, 0x31, 0xbd,
  0x6f, 0xc7, 0xef, 0x3d, 0x12, 0x57, 0xbf, 0x3e, 0xdd, 0x00, 0x2c, 0xbf,
  0xb1, 0x87, 0x8c, 0xbf, 0x86, 0x49, 0x05, 0xbf, 0x72, 0xd6, 0x9d, 0xbe,
  0xba, 0x72, 0x83, 0xbe, 0xcd, 0xda, 0xb8, 0x3c, 0x30, 0xd3, 0x22, 0xbf,
  0x3b, 0x2a, 0x43, 0x3f, 0x2f, 0x14, 0xe2, 0xbe, 0x72, 0x4a, 0xfe, 0x3e,
  0xc0, 0x42, 0x01, 0xbe, 0xa4, 0x4d, 0xb2, 0x3e, 0xf4, 0xbb, 0x11, 0x3f,
  0xb0, 0x7f, 0x17, 0xbf, 0xfc, 0xff, 0x0c, 0xbe, 0x74, 0xce, 0x73, 0x3e,
  0xad, 0xfb, 0x06, 0x3e, 0xec, 0xe4, 0x90, 0x3c, 0xff, 0xff, 0x6e, 0x3e,
  0x2e, 0x2e, 0x6c, 0x3d, 0x84, 0xdc, 0x78, 0xbe, 0x1d, 0x41, 0x30, 0xbe,
  0x2e, 0x52, 0xb6, 0x3e, 0xf4, 0xfd, 0x95, 0x3e, 0xbc, 0x57, 0x91, 0x3e,
  0x5e, 0x29, 0x83, 0x3e, 0x63, 0x18, 0xb4, 0xbd, 0x2c, 0xab, 0x54, 0xbf,
  0x01, 0x15, 0xc1, 0xbb, 0x9b, 0xae, 0x10, 0xbd, 0x6c, 0x06, 0xa9, 0x3e,
  0xf4, 0xed, 0x98, 0x3d, 0xcf, 0x99, 0xef, 0x3e, 0xb0, 0x69, 0xbd, 0x3d,
  0x78, 0x79, 0x0b, 0x3e, 0x1d, 0xed, 0x7e, 0xbd, 0x75, 0x0c, 0xc4, 0xbf,
  0x2d, 0xe1, 0x8a, 0xbe, 0x47, 0x15, 0x89, 0x3d, 0xf1, 0xc5, 0x5d, 0xbe,
  0xfb, 0x32, 0xcd, 0xbd, 0x35, 0xaf, 0x1d, 0xbf, 0xb9, 0x9c, 0x19, 0x3e,
  0x50, 0xa1, 0x06, 0x3d, 0xc0, 0x86, 0x8b, 0xbd, 0x88, 0x21, 0x88, 0x3e,
  0xf1, 0x25, 0x45, 0xbe, 0xb9, 0x79, 0xb2, 0xbd, 0x8a, 0xb5, 0x08, 0xbe,
  0x98, 0x6c, 0x04, 0xbe, 0xd7, 0xed, 0x4f, 0x3e, 0x88, 0xea, 0xae, 0xbd,
  0xf4, 0xa0, 0xb3, 0xbd, 0xac, 0x21, 0xd7, 0x3b, 0xbd, 0xc6, 0x62, 0xbe,
  0x77, 0xa0, 0x83, 0x3c, 0xcf, 0x34, 0xa1, 0x3e, 0x88, 0xef, 0x43, 0xbe,
  0x6d, 0x43, 0x67, 0xbe, 0x71, 0xee, 0x78, 0xbe, 0x3e, 0x50, 0x59, 0xbe,
  0xd4, 0x7b, 0x25, 0x3e, 0xc3, 0x21, 0x6c, 0xbe, 0xe5, 0x59, 0x06, 0xbf,
  0xfe, 0xbd, 0x88, 0x3e, 0x81, 0xaa, 0xff, 0xbe, 0x03, 0x22, 0x42, 0x3d,
  0x71, 0x95, 0x03, 0x3f, 0x45, 0x34, 0x34, 0x3e, 0x8f, 0x9f, 0x07, 0xbe,
  0xb8, 0x10, 0x2b, 0x3e, 0x9b, 0xb2, 0xdd, 0xbd, 0x33, 0x20, 0x99, 0xbe,
  0x8b, 0x02, 0x17, 0x3e, 0x63, 0x51, 0xf3, 0x3d, 0x0b, 0xbf, 0xee, 0x3d,
  0x8d, 0xa7, 0xe0, 0xbd, 0xe5, 0x47, 0xf2, 0xbd, 0x27, 0xed, 0x68, 0x3d,
  0xda, 0xc0, 0x38, 0x3d, 0x14, 0x14, 0xd3, 0x3e, 0xee, 0x8e, 0xd0, 0xbc,
  0xa9, 0xf8, 0x98, 0xbe, 0x6f, 0xcc, 0x0a, 0x3e, 0x1e, 0xd8, 0x3b, 0xbe,
  0xfe, 0x36, 0x10, 0xbe, 0xc2, 0x5f, 0x19, 0xbe, 0xfa, 0x05, 0x70, 0xbe,
  0xa8, 0x4c, 0x7c, 0x3e, 0xa2, 0x3a, 0x5e, 0xbe, 0x9a, 0xcd, 0x1b, 0x3d,
  0x6f, 0x5d, 0xe0, 0xbd, 0xed, 0x2c, 0x2e, 0xbe, 0xe2, 0xc5, 0xce, 0x3d,
  0x49, 0x85, 0x9e, 0x3e, 0x84, 0x1f, 0x8c, 0x3e, 0x51, 0x5b, 0x20, 0xbe,
  0xd2, 0xbb, 0xbf, 0xbe, 0x00, 0xe5, 0x97, 0xbe, 0x6a, 0x6d, 0xda, 0xbe,
  0x47, 0xa8, 0x49, 0xbe, 0x2e, 0x38, 0xeb, 0xbe, 0x4f, 0x77, 0xc0, 0x3c,
  0x73, 0x88, 0x6a, 0x3e, 0x1b, 0xfc, 0x5a, 0x3e, 0x97, 0x4d, 0xbe, 0x3e,
  0x2f, 0x11, 0x13, 0x3f, 0x1c, 0x58, 0x69, 0xbe, 0xa5, 0x21, 0xd6, 0x3e,
  0xf3, 0xca, 0x6c, 0x3e, 0x1d, 0xa6, 0x05, 0xbf, 0x1e, 0x5f, 0x1a, 0xbe,
  0x18, 0x2a, 0x8e, 0x3e, 0x3b, 0xc6, 0xb0, 0x3d, 0x68, 0xa7, 0x14, 0x3f,
  0x0e, 0xcc, 0x04, 0xbd, 0xce, 0x42, 0xe1, 0x3d, 0x65, 0xc1, 0x7b, 0x3d,
  0x75, 0x45, 0x2b, 0x3e, 0x1d, 0xff, 0x1d, 0x3d, 0x03, 0xe2, 0xab, 0x3e,
  0x87, 0xa4, 0xd8, 0x3e, 0xd7, 0x00, 0x8a, 0xbe, 0x52, 0x5a, 0x05, 0x3e,
  0x88, 0x62, 0x12, 0xbe, 0xd1, 0x7b, 0x9c, 0xbf, 0x4b, 0x3b, 0x40, 0xbe,
  0x56, 0x43, 0x33, 0x3e, 0x4d, 0x2e, 0x0f, 0x3e, 0x8f, 0x05, 0xe1, 0xbd,
  0xbe, 0xa8, 0x34, 0xbe, 0x42, 0x33, 0x9a, 0x3e, 0xda, 0xbb, 0xa0, 0xbd,
  0xb1, 0xd9, 0xc9, 0x3e, 0xb1, 0xac, 0xd9, 0x3d, 0x58, 0x25, 0xb9, 0x3d,
  0xa5, 0x2e, 0x56, 0xbe, 0xd1, 0x3d, 0x0b, 0xbf, 0x84, 0xfc, 0x92, 0xbe,
  0x9c, 0x41, 0xe9, 0x3c, 0xea, 0x25, 0x96, 0x3e, 0xc6, 0x97, 0xd6, 0x3e,
  0x33, 0x9f, 0x49, 0x3e, 0x59, 0x45, 0xf5, 0x3d, 0x56, 0x4f, 0x34, 0x3d,
  0x8a, 0xe6, 0xa0, 0x3e, 0x20, 0x63, 0xfd, 0x3d, 0xf3, 0xaa, 0xb7, 0x3e,
  0xf8, 0x02, 0x83, 0xbe, 0xba, 0x44, 0xfd, 0xbe, 0xf3, 0xc6, 0xc9, 0xbe,
  0x82, 0x9a, 0x3a, 0x3d, 0x3f, 0xcd, 0xae, 0x3e, 0x30, 0x65, 0xa3, 0x3e,
  0x36, 0x58, 0x81, 0xbe, 0xb6, 0xea, 0x2d, 0xbe, 0x26, 0xdc, 0x86, 0xbe,
  0xdd, 0x79, 0xf0, 0x3e, 0xdc, 0x43, 0x1a, 0xbe, 0x27, 0x7f, 0xbe, 0x3c,
  0x27, 0x2f, 0xa7, 0xba, 0x31, 0xf2, 0x96, 0xbe, 0x53, 0x07, 0xcb, 0xbe,
  0x3d, 0x07, 0x47, 0xbd, 0x05, 0x9f, 0x8c, 0xbe, 0x48, 0x42, 0x4f, 0x3e,
  0x86, 0xde, 0xe1, 0x3e, 0xbb, 0xe6, 0xc5, 0xbc, 0x91, 0x93, 0xf9, 0x3d,
  0x45, 0x58, 0x14, 0x3f, 0xc5, 0x61, 0xf2, 0x3d, 0x51, 0xa4, 0x54, 0x3e,
  0xf6, 0xf4, 0xdb, 0xbd, 0x6d, 0x56, 0x76, 0x3e, 0x5b, 0x44, 0xe3, 0xbd,
  0x3f, 0x66, 0x3d, 0x3e, 0xc3, 0xa8, 0x4f, 0xbe, 0x7c, 0x50, 0x17, 0x3e,
  0xdc, 0x69, 0x9a, 0x3e, 0x06, 0x98, 0xa8, 0x3c, 0x30, 0xeb, 0x83, 0xbf,
  0x9c, 0x94, 0x18, 0x3e, 0x50, 0x8e, 0x3a, 0xbe, 0x80, 0xf8, 0xb9, 0x3e,
  0x70, 0x1b, 0xe4, 0xbe, 0x7a, 0x74, 0x2a, 0x3f, 0x7b, 0x69, 0x49, 0xbe,
  0x47, 0x49, 0xf2, 0x3d, 0x42, 0xa5, 0xef, 0xbe, 0x1f, 0x60, 0xa3, 0x3c,
  0xa7, 0xb3, 0x74, 0xbe, 0xf3, 0xf7, 0x8c, 0xbe, 0x90, 0x55, 0x52, 0xbf,
  0x60, 0x4c, 0x83, 0xbe, 0x25, 0x70, 0x79, 0x3e, 0x07, 0x12, 0xb8, 0x3e,
  0xbe, 0x02, 0xd1, 0xbc, 0x28, 0xe1, 0x34, 0xbd, 0x96, 0x47, 0xa6, 0xbe,
  0xcf, 0xd2, 0x60, 0x3d, 0x4d, 0xcd, 0x99, 0x3d, 0xf9, 0xcb, 0x43, 0xbe,
  0xa8, 0x2a, 0x0c, 0x3f, 0xad, 0x60, 0xf7, 0x3d, 0x25, 0x89, 0xea, 0xbe,
  0x5a, 0x05, 0x83, 0xbe, 0xb2, 0xd2, 0x54, 0xbe, 0xf2, 0xea, 0x2b, 0x3e,
  0x65, 0xd9, 0xec, 0xbd, 0x59, 0x4d, 0xa6, 0xbe, 0x77, 0xd4, 0x36, 0x3e,
  0xf0, 0xa1, 0xf6, 0xbb, 0xa3, 0x6b, 0x24, 0xbf, 0x2e, 0x4e, 0x93, 0xbd,
  0x5a, 0x11, 0x8e, 0x3c, 0xe7, 0xca, 0x51, 0x3e, 0x6c, 0xc2, 0xc3, 0xbe,
  0x3b, 0x5a, 0x0c, 0xbe, 0xd2, 0xaa, 0x2a, 0xbe, 0x5f, 0x60, 0xcb, 0xbd,
  0x25, 0xf0, 0x89, 0xbe, 0x1d, 0xaa, 0x5d, 0x3e, 0x83, 0x06, 0x23, 0x3e,
  0xed, 0xf8, 0x47, 0x3c, 0x35, 0x5e, 0x37, 0x3f, 0x3c, 0x0d, 0xce, 0xbd,
  0x53, 0x0c, 0xad, 0x3e, 0x64, 0xd8, 0x9e, 0x3e, 0xbf, 0xb4, 0xdb, 0xbd,
  0x45, 0xaf, 0x6e, 0xbc, 0x7b, 0xca, 0x8b, 0xbe, 0xe4, 0x04, 0x68, 0xbe,
  0x80, 0x9e, 0x4a, 0x3e, 0x63, 0x9e, 0x44, 0x3e, 0xbf, 0xf3, 0x8a, 0x3d,
  0x48, 0xd8, 0x0f, 0x3d, 0x2f, 0x85, 0x8e, 0x3e, 0x84, 0xc2, 0x57, 0xbd,
  0xd4, 0xf9, 0x68, 0x3e, 0x16, 0xda, 0x69, 0xbe, 0xc7, 0xc6, 0x88, 0x3e,
  0xcb, 0x35, 0x37, 0x3e, 0x0e, 0xb4, 0xf1, 0x3d, 0x3a, 0xdb, 0x90, 0xbe,
  0xb8, 0x12, 0x88, 0x3d, 0x4f, 0xbc, 0x80, 0xbd, 0x18, 0xc2, 0xf2, 0xbd,
  0x22, 0x2a, 0x82, 0x3e, 0xc4, 0xdf, 0x90, 0x3e, 0x62, 0xad, 0xed, 0x3b,
  0x76, 0x7d, 0x82, 0x3e, 0xc6, 0x8a, 0xf6, 0x3d, 0xbd, 0x10, 0x2a, 0x3e,
  0x1c, 0x0c, 0x22, 0x3e, 0xe5, 0x0c, 0x28, 0xbd, 0x89, 0x3c, 0xab, 0xbc,
  0xe3, 0xb4, 0xe7, 0xbd, 0x4c, 0xaf, 0xa8, 0xbd, 0x87, 0x80, 0x29, 0x3e,
  0x87, 0x19, 0x6f, 0x3d, 0x7e, 0x84, 0x53, 0x3d, 0xc1, 0xd4, 0xd5, 0xbd,
  0x98, 0x4e, 0xbc, 0xbe, 0xa7, 0xbf, 0x08, 0xbe, 0xfa, 0xb2, 0x73, 0xbc,
  0xe6, 0x43, 0xc1, 0xbd, 0x1d, 0xca, 0x8c, 0x3d, 0xc7, 0x48, 0xa6, 0x3d,
  0xda, 0x00, 0xb8, 0xbc, 0x0c, 0x45, 0x72, 0x3e, 0xc3, 0x71, 0xbe, 0xbe,
  0x32, 0x36, 0xc3, 0x3d, 0x45, 0x86, 0xef, 0x3c, 0x30, 0xc8, 0x28, 0xbe,
  0x45, 0xfd, 0x5b, 0xbe, 0x1a, 0xa4, 0x7a, 0xbd, 0x10, 0x0c, 0x9f, 0xbd,
  0x73, 0xc5, 0x37, 0xbe, 0xc1, 0xc2, 0x13, 0xbf, 0x4b, 0x17, 0xce, 0x3e,
  0xe7, 0xd2, 0x3f, 0xbe, 0xb1, 0xa9, 0xf5, 0x3d, 0x39, 0xce, 0xf5, 0xbb,
  0x3b, 0x0f, 0x0e, 0xbf, 0x16, 0xb6, 0x46, 0x3d, 0x6c, 0xec, 0x2e, 0x3e,
  0xe1, 0xae, 0x2d, 0xbe, 0x81, 0x86, 0x8e, 0xbe, 0xc0, 0x77, 0xb0, 0x3d,
  0x46, 0x12, 0xd4, 0xbd, 0x70, 0xa2, 0x20, 0x3e, 0x2c, 0xd8, 0x00, 0xbe,
  0x6b, 0xdb, 0x24, 0x3d, 0x66, 0x05, 0x98, 0x3e, 0x89, 0x25, 0x16, 0x3e,
  0x66, 0xb8, 0xcc, 0x3d, 0x65, 0xe8, 0xcb, 0xbe, 0x39, 0x31, 0x9f, 0x3d,
  0x16, 0x7e, 0x5c, 0x3e, 0x1b, 0xa9, 0x6c, 0x3e, 0x4b, 0xcb, 0xa2, 0xbd,
  0xfd, 0x1a, 0x77, 0x3e, 0xf3, 0xb8, 0xc1, 0xbe, 0x7a, 0x51, 0xac, 0x3e,
  0xbb, 0xd7, 0x02, 0x3f, 0x06, 0x6d, 0xb9, 0xbd, 0x15, 0x00, 0x24, 0x3e,
  0x17, 0x1d, 0x13, 0xbe, 0xeb, 0x7e, 0x72, 0xbe, 0xad, 0x81, 0x96, 0x3d,
  0xe7, 0x3c, 0x30, 0x3e, 0xa3, 0x75, 0x87, 0xbd, 0xaa, 0xa4, 0x9d, 0x3e,
  0xc1, 0xdd, 0xd0, 0xbe, 0x31, 0x51, 0x93, 0x3d, 0xcb, 0xf6, 0x01, 0x3f,
  0xf2, 0x2d, 0x79, 0xbe, 0x72, 0x3b, 0x1a, 0x3d, 0x85, 0xd6, 0x88, 0xbd,
  0x24, 0x0b, 0x88, 0x3e, 0x2a, 0x0b, 0x15, 0x3e, 0x46, 0x65, 0x3f, 0xbc,
  0xd3, 0xfd, 0x33, 0xbd, 0x7b, 0x48, 0x97, 0x3e, 0xb9, 0x04, 0x21, 0x3e,
  0x49, 0x06, 0x1d, 0xbf, 0x66, 0x7e, 0xa1, 0x3c, 0xc2, 0x65, 0x16, 0x3f,
  0x1f, 0xfd, 0xa4, 0xbd, 0x4a, 0x14, 0x45, 0xbe, 0x76, 0x07, 0x0e, 0x3a,
  0x63, 0xcc, 0x87, 0x3d, 0x20, 0x72, 0x38, 0x3e, 0xdc, 0x09, 0xe1, 0xbd,
  0x57, 0xe1, 0x00, 0x3e, 0xd6, 0x1a, 0x9b, 0x3d, 0x18, 0xb2, 0xa6, 0x3e,
  0xc3, 0x50, 0x0c, 0xbf, 0x39, 0xf8, 0x95, 0x3d, 0xdb, 0xd7, 0x11, 0xbf,
  0xcf, 0x47, 0x96, 0x3e, 0x92, 0x92, 0x09, 0x3e, 0x30, 0x0d, 0x0b, 0xbf,
  0xf6, 0x75, 0x95, 0x3d, 0xb9, 0xee, 0xe4, 0x3d, 0xfb, 0xbd, 0x1d, 0xbf,
  0xa4, 0xeb, 0xbb, 0xbe, 0xcd, 0x24, 0xa9, 0x3e, 0xe1, 0x05, 0x83, 0x3e,
  0x19, 0x22, 0x3f, 0xbd, 0xcb, 0xc2, 0x6a, 0xbe, 0x3d, 0x83, 0x8b, 0xbe,
  0x0a, 0xb5, 0x3f, 0x3e, 0x32, 0x16, 0x90, 0x3e, 0x62, 0x2f, 0xc2, 0xbb,
  0xa2, 0xdd, 0x9d, 0xbc, 0x53, 0x1b, 0xc9, 0xbd, 0xd8, 0xf8, 0x72, 0x3e,
  0x34, 0x3e, 0xae, 0x3e, 0xf9, 0xfb, 0x9c, 0xbd, 0xe1, 0xd7, 0x38, 0xbf,
  0xc6, 0xd5, 0x28, 0xbe, 0x4c, 0xa2, 0x32, 0xbd, 0xae, 0xf7, 0x75, 0xbd,
  0x1f, 0x85, 0x0d, 0x3e, 0x8f, 0x71, 0x91, 0x3e, 0x8f, 0x84, 0x34, 0xbd,
  0xc2, 0xdc, 0x1a, 0xbe, 0x30, 0xc5, 0x76, 0xbd, 0xa5, 0xe2, 0x22, 0xbf,
  0x86, 0x79, 0xeb, 0x3d, 0x6b, 0x21, 0x95, 0x3d, 0x2b, 0x65, 0x86, 0x3d,
  0xf6, 0x49, 0x6a, 0x3d, 0x4f, 0x08, 0x1c, 0xbc, 0x1e, 0x9d, 0x28, 0x3f,
  0x0b, 0x6e, 0xbd, 0xbd, 0x05, 0xf2, 0x27, 0x3d, 0x9f, 0x72, 0x2d, 0x3e,
  0x80, 0x4b, 0x42, 0xbe, 0x9d, 0x55, 0x1b, 0xbe, 0x7f, 0xf0, 0xb8, 0xbe,
  0x03, 0x98, 0x10, 0x3e, 0x9f, 0xe3, 0xfb, 0x3c, 0x7b, 0x96, 0x95, 0x3e,
  0x46, 0xe5, 0x11, 0x3f, 0xdb, 0x5d, 0x51, 0x3e, 0x97, 0xa5, 0x67, 0xbe,
  0xe4, 0x7a, 0xb5, 0xbc, 0xe6, 0x16, 0x40, 0xbe, 0x03, 0x69, 0x61, 0x3e,
  0xb6, 0x86, 0xec, 0xbe, 0x32, 0xad, 0x1a, 0x3b, 0x03, 0x40, 0x20, 0xbe,
  0x6a, 0xd4, 0x08, 0x3d, 0x67, 0x78, 0x61, 0xbe, 0xd2, 0xcf, 0x45, 0xbe,
  0x30, 0xf5, 0x18, 0x3f, 0x6a, 0x33, 0xc4, 0xbe, 0xdf, 0xe0, 0x94, 0xbc,
  0x1a, 0xfd, 0x71, 0x3e, 0xdb, 0x42, 0xbb, 0xbd, 0x95, 0x28, 0x94, 0x3d,
  0xc9, 0x90, 0xa9, 0xbd, 0x34, 0x38, 0xa0, 0x3d, 0x2b, 0xb4, 0xa1, 0x3e,
  0x29, 0x4e, 0xfd, 0x3d, 0xcc, 0x05, 0xc7, 0xbe, 0x13, 0x52, 0xa3, 0x3e,
  0x50, 0x58, 0xb5, 0xbe, 0x1c, 0x52, 0x95, 0xbe, 0xbf, 0x11, 0x2c, 0x3f,
  0x0a, 0x82, 0xe4, 0x3d, 0xb8, 0x06, 0xda, 0xbc, 0x3e, 0x8a, 0x9f, 0x3e,
  0xaa, 0x34, 0x57, 0x3e, 0x7e, 0x6b, 0xf5, 0xbe, 0xdc, 0x6e, 0xfd, 0x3d,
  0x26, 0xf8, 0xbb, 0xbd, 0xe8, 0x17, 0xe6, 0xbd, 0x5e, 0x68, 0x6e, 0x3f,
  0xb6, 0x30, 0x0e, 0x3d, 0x2b, 0xcc, 0xb6, 0xbd, 0xb6, 0x82, 0x35, 0x3f,
  0xce, 0xec, 0xeb, 0xbd, 0x02, 0x15, 0x40, 0xbe, 0x08, 0xdd, 0xa0, 0x3e,
  0xda, 0x2a, 0xeb, 0xbd, 0xfe, 0x59, 0x65, 0xbd, 0x8d, 0x5a, 0x8a, 0x3d,
  0x61, 0xc3, 0xa4, 0xbe, 0x9b, 0x5d, 0xa2, 0xbd, 0x49, 0xfa, 0x50, 0xbe,
  0xf4, 0xae, 0x67, 0x3e, 0x3f, 0x7e, 0xea, 0x3e, 0xc1, 0x2d, 0x11, 0x3e,
  0x77, 0xa0, 0xd4, 0xbd, 0x8f, 0xaf, 0x7f, 0x3d, 0x34, 0xa7, 0xb7, 0x3e,
  0xdf, 0x86, 0xb7, 0x3d, 0xee, 0x23, 0xa2, 0x3e, 0x64, 0xa9, 0x49, 0x3e,
  0x38, 0x67, 0xde, 0xbe, 0x79, 0xac, 0x53, 0xbd, 0x40, 0x36, 0x72, 0xbe,
  0x4b, 0xd0, 0x5b, 0x3e, 0x2e, 0xe2, 0xc5, 0xbe, 0xbf, 0xd6, 0xa3, 0x3b,
  0xee, 0x76, 0x0d, 0x3d, 0x13, 0x9b, 0x07, 0xbe, 0xe2, 0xb5, 0xd0, 0xbe,
  0x6f, 0xce, 0x31, 0x3d, 0xe4, 0x41, 0xbf, 0xbd, 0x5f, 0x43, 0x52, 0x3e,
  0x2c, 0xb8, 0x4c, 0xbd, 0x9f, 0xb1, 0x6a, 0x3e, 0xad, 0x64, 0x85, 0x3e,
  0x14, 0x35, 0x3d, 0x3e, 0x6b, 0x23, 0x5a, 0x3e, 0x26, 0xcf, 0x3f, 0x3e,
  0x74, 0xb2, 0x6e, 0x3d, 0x3b, 0x22, 0x87, 0x3d, 0x70, 0x14, 0xc3, 0x3d,
  0x4f, 0x33, 0x84, 0xbd, 0x4f, 0xe9, 0xec, 0x3d, 0xa1, 0x75, 0x4e, 0x3d,
  0xbe, 0xf0, 0x0b, 0xbf, 0x71, 0x31, 0x5f, 0x3e, 0x5c, 0x61, 0xa8, 0x3e,
  0xff, 0x6c, 0xee, 0xbe, 0x15, 0x43, 0xf9, 0xbd, 0x39, 0x87, 0x82, 0xbe,
  0x85, 0x04, 0x14, 0x3f, 0xbe, 0x7c, 0x71, 0xbe, 0x10, 0x5c, 0x7a, 0xbd,
  0xdf, 0x40, 0xcb, 0xbe, 0xbf, 0xb3, 0x59, 0xbe, 0x85, 0x8b, 0x20, 0xbe,
  0xb7, 0x6d, 0x83, 0x3d, 0x0c, 0x44, 0x94, 0x3e, 0x80, 0xd5, 0x0c, 0x3c,
  0x63, 0xe9, 0x88, 0xbd, 0x3c, 0x54, 0x7a, 0xbe, 0x33, 0xb0, 0x56, 0xbe,
  0x84, 0xda, 0xa5, 0xbe, 0x9c, 0x54, 0x06, 0xbf, 0x1c, 0x20, 0x5e, 0xbd,
  0x22, 0xe8, 0x2a, 0xbd, 0x27, 0x31, 0xbc, 0x3e, 0xf7, 0x3b, 0xfa, 0xbd,
  0x88, 0x4a, 0xe9, 0x3d, 0xd8, 0xdb, 0x34, 0xbe, 0x8f, 0x28, 0xda, 0x3e,
  0x3b, 0x35, 0x30, 0xbf, 0x21, 0x87, 0x03, 0xbf, 0xf6, 0x99, 0x49, 0xbe,
  0xdf, 0xb1, 0xd9, 0x3e, 0x46, 0x0a, 0xae, 0x3e, 0x94, 0xd1, 0x24, 0x3d,
  0xaa, 0xc0, 0x1f, 0xbf, 0x11, 0x71, 0xd7, 0x3e, 0x8d, 0xb9, 0xb6, 0x3e,
  0xe8, 0x97, 0xc4, 0xbe, 0x53, 0xf8, 0x88, 0x3e, 0x4d, 0x98, 0x40, 0x3f,
  0x22, 0xb1, 0x86, 0xbe, 0xdc, 0xb7, 0xe6, 0xbe, 0x1d, 0xbf, 0xc7, 0x3d,
  0xce, 0x96, 0x7a, 0x3d, 0x79, 0x27, 0x8f, 0x3d, 0x45, 0x5f, 0xac, 0x3d,
  0x1f, 0x34, 0x2a, 0x3e, 0xf2, 0x00, 0x20, 0x3e, 0x2e, 0x9a, 0xca, 0xbe,
  0x91, 0x5e, 0x32, 0x3c, 0xdb, 0x28, 0x5b, 0x3c, 0x7c, 0x06, 0x18, 0x3d,
  0xc9, 0xd4, 0x02, 0xbd, 0xd8, 0x24, 0x22, 0xbe, 0x43, 0xe1, 0xd9, 0xbe,
  0x27, 0xf3, 0x43, 0x3e, 0xc1, 0x6f, 0x40, 0x3d, 0x6e, 0xaf, 0x31, 0xbd,
  0xd9, 0x52, 0xce, 0x3d, 0x39, 0x44, 0x74, 0xbe, 0x78, 0x20, 0x1c, 0x3e,
  0x60, 0x4a, 0x88, 0x3e, 0xc4, 0x64, 0x59, 0xbd, 0xac, 0x7b, 0xdc, 0xbd,
  0xa2, 0xf8, 0xeb, 0xbe, 0xa4, 0xda, 0xee, 0x3d, 0x44, 0x74, 0x7b, 0x3d,
  0x81, 0xba, 0x12, 0xbe, 0xdc, 0xd0, 0x68, 0xbe, 0x64, 0x4c, 0x0f, 0xbe,
  0x58, 0x7c, 0xf0, 0xbe, 0xe6, 0x43, 0xd4, 0x3e, 0xfc, 0xea, 0x92, 0x3e,
  0x7d, 0xb5, 0x86, 0xbe, 0xfb, 0xd7, 0x19, 0xbe, 0xbd, 0x3a, 0xcd, 0xbe,
  0x7e, 0x2b, 0x56, 0x3e, 0x8d, 0xec, 0xc9, 0xbd, 0xd3, 0xce, 0x3a, 0x3d,
  0xf7, 0x5d, 0x6f, 0x3d, 0xb5, 0x5e, 0xf7, 0xbe, 0x3a, 0x10, 0xa4, 0xbe,
  0xdb, 0x4d, 0x01, 0xbf, 0xab, 0xf6, 0x0f, 0xbe, 0xeb, 0x0a, 0xa5, 0x3d,
  0x1b, 0x3e, 0x6d, 0xbd, 0x27, 0x1e, 0x95, 0x3d, 0x35, 0x38, 0x24, 0xbe,
  0xcc, 0xa1, 0xce, 0x3d, 0x6b, 0x25, 0x43, 0x3f, 0x90, 0x53, 0x88, 0xbd,
  0x3d, 0x13, 0xe6, 0xbd, 0x23, 0x4c, 0x20, 0x3f, 0x87, 0xba, 0xf2, 0xbd,
  0xfb, 0xbb, 0x73, 0x3e, 0xbe, 0xbb, 0x1b, 0xbe, 0x90, 0xb7, 0x19, 0xbf,
  0x83, 0x7c, 0x4f, 0x3e, 0xc8, 0x60, 0x29, 0x3e, 0x45, 0x4d, 0x3c, 0x3e,
  0x2c, 0xb2, 0x72, 0x3e, 0x1f, 0xc5, 0x71, 0xbd, 0xc2, 0x4d, 0x99, 0x3e,
  0x1a, 0x06, 0x8a, 0x3d, 0xb7, 0x21, 0x55, 0x3e, 0xdb, 0x69, 0xef, 0x3d,
  0xb0, 0x17, 0x02, 0x3d, 0x86, 0xf1, 0x83, 0xbd, 0x40, 0xb2, 0x67, 0xbe,
  0x17, 0x5a, 0xc9, 0x3e, 0xca, 0xdc, 0x55, 0x3d, 0xbf, 0xd5, 0x3d, 0xbf,
  0x7b, 0x55, 0x89, 0x3d, 0x20, 0x55, 0x7e, 0x3e, 0x4d, 0x9e, 0xb3, 0x3d,
  0x84, 0x48, 0x97, 0x3e, 0xc8, 0x87, 0xc9, 0x3d, 0xe3, 0x51, 0x96, 0x3e,
  0xd2, 0x46, 0xb2, 0xbe, 0x6e, 0x08, 0xbb, 0x3d, 0x5e, 0x21, 0x10, 0xbf,
  0xea, 0x1c, 0x9f, 0x3e, 0xfa, 0x50, 0x07, 0xbc, 0xd6, 0x50, 0x05, 0x3e,
  0xb0, 0xe5, 0x8b, 0x3e, 0xa5, 0xde, 0x23, 0xbe, 0xb5, 0xc9, 0xe1, 0x3e,
  0xa7, 0x52, 0x25, 0x3e, 0x7c, 0x7e, 0xd9, 0xbe, 0xd4, 0x1a, 0xea, 0xbd,
  0x0b, 0xa2, 0xa3, 0x3e, 0x5a, 0x82, 0xcc, 0xbd, 0xe0, 0x55, 0xa0, 0xbe,
  0x31, 0x66, 0x07, 0x3f, 0x3c, 0x34, 0xc2, 0x3e, 0x8c, 0x6d, 0x9c, 0xbe,
  0x7c, 0x93, 0x1d, 0xbd, 0x9d, 0x40, 0xa4, 0xbd, 0x63, 0x0b, 0xc7, 0x3b,
  0x40, 0xbe, 0xef, 0xbe, 0x78, 0x5e, 0xe3, 0x3d, 0x20, 0x4b, 0x2e, 0x3d,
  0x81, 0xb0, 0x13, 0xbe, 0xc8, 0x50, 0x3f, 0x3e, 0x1d, 0xd5, 0x60, 0x3d,
  0x0d, 0xfc, 0xf8, 0x3e, 0xb1, 0x7b, 0x09, 0x3f, 0x88, 0x14, 0xdc, 0xbe,
  0x31, 0x72, 0xbb, 0xbe, 0x0b, 0xf5, 0x0c, 0xbf, 0x2f, 0xdc, 0x85, 0xbe,
  0x8d, 0xe8, 0x32, 0x3e, 0x17, 0xa5, 0xd1, 0x3e, 0x31, 0xa8, 0xeb, 0xbe,
  0xe2, 0x1d, 0x1f, 0x3e, 0xf9, 0x4d, 0x0a, 0x3f, 0xa5, 0xf8, 0x3b, 0xbd,
  0x1b, 0x9a, 0x2f, 0x3e, 0xb2, 0xb2, 0xbb, 0xbd, 0xbb, 0x22, 0xb1, 0xbd,
  0x80, 0xbe, 0xf2, 0xbc, 0xe9, 0x78, 0xcd, 0xbe, 0x5b, 0x8e, 0xa9, 0xbe,
  0x53, 0x0b, 0x11, 0xbe, 0xad, 0x7e, 0xaf, 0xbc, 0x0d, 0x29, 0xab, 0xbd,
  0xc3, 0xe5, 0x9a, 0x3e, 0x47, 0x22, 0x84, 0x3e, 0x6c, 0xba, 0x07, 0x3d,
  0x03, 0xb8, 0xa6, 0xbe, 0x66, 0xff, 0xd4, 0x3e, 0xd7, 0xc1, 0x58, 0x3e,
  0x5a, 0xff, 0xb9, 0x3e, 0x9d, 0x4e, 0x8f, 0xbe, 0xba, 0x9e, 0xc0, 0xbc,
  0xd6, 0xa6, 0x32, 0x3d, 0x16, 0x9b, 0x2f, 0xbe, 0x3b, 0x83, 0xa1, 0x3d,
  0xf7, 0xaa, 0x39, 0x3f, 0x20, 0x95, 0xed, 0x3d, 0x21, 0x3f, 0x42, 0xbe,
  0x47, 0x8a, 0x81, 0xbe, 0xb6, 0xb9, 0x60, 0xbe, 0xaf, 0x58, 0x0b, 0x3c,
  0x7b, 0x4d, 0xab, 0xbe, 0x16, 0xc1, 0xc5, 0x3e, 0xd3, 0x28, 0x13, 0x3d,
  0x22, 0xed, 0x1b, 0x3e, 0x8d, 0xa4, 0x00, 0x3d, 0xd7, 0x20, 0x8c, 0xbe,
  0x9d, 0xdc, 0xd0, 0x3e, 0x3e, 0xe3, 0x25, 0xbe, 0xde, 0x1f, 0xcc, 0x3d,
  0x7c, 0x73, 0x42, 0xbe, 0xdb, 0x05, 0x34, 0x3e, 0x52, 0xec, 0x0e, 0x3f,
  0x01, 0x1a, 0x13, 0xbe, 0xa9, 0x9b, 0x43, 0xbf, 0xe0, 0xc5, 0xfc, 0x3e,
  0x30, 0x7e, 0x0b, 0xbd, 0x70, 0x92, 0x60, 0x3e, 0xf3, 0x1f, 0xfd, 0xbe,
  0x9b, 0xa4, 0x78, 0x3d, 0x68, 0x58, 0x83, 0xbe, 0x25, 0x2f, 0xd4, 0x3e,
  0xf3, 0xaf, 0xf6, 0xbe, 0xee, 0xc4, 0x01, 0xbf, 0x09, 0x64, 0xb2, 0x3e,
  0xcc, 0x9d, 0x1e, 0xbe, 0x65, 0x46, 0x93, 0xbd, 0xd5, 0x1a, 0x82, 0x3e,
  0xda, 0xd2, 0x9b, 0xbd, 0xeb, 0x16, 0xeb, 0x3c, 0x92, 0x80, 0x8a, 0xbc,
  0x14, 0x69, 0x8c, 0xbd, 0x10, 0xdf, 0x91, 0xbe, 0x39, 0xa1, 0x9f, 0x3e,
  0x74, 0x94, 0x93, 0xbe, 0xea, 0x1b, 0x8a, 0x3e, 0x60, 0x72, 0x1e, 0x3e,
  0x67, 0x13, 0xa3, 0xbe, 0xac, 0x39, 0x60, 0xbe, 0x9b, 0xc8, 0xf6, 0x3e,
  0x3b, 0xfe, 0xd1, 0x3e, 0x57, 0x05, 0xc0, 0x3d, 0x55, 0x2a, 0x01, 0x3e,
  0x13, 0x2c, 0xde, 0xbe, 0x7e, 0x4e, 0x99, 0xbc, 0x4b, 0x40, 0x69, 0x3d,
  0x70, 0x3c, 0x87, 0x3e, 0x00, 0xad, 0x74, 0xbe, 0xd3, 0xef, 0x4f, 0x3e,
  0xbf, 0x65, 0x09, 0xbf, 0x44, 0xd9, 0x88, 0x3e, 0x95, 0xa0, 0xc2, 0x3e,
  0x0c, 0x32, 0x8d, 0xbe, 0x9f, 0x5e, 0xe4, 0x3e, 0x6f, 0xc0, 0x75, 0x3d,
  0xff, 0xdd, 0x90, 0x3e, 0xb8, 0xcc, 0x19, 0xbe, 0x86, 0xb4, 0x0f, 0xbf,
  0xf0, 0xfc, 0x19, 0xbd, 0x3e, 0x78, 0xf9, 0xbd, 0xc3, 0xce, 0xb1, 0x3e,
  0x56, 0x93, 0x30, 0xbf, 0x95, 0x4b, 0x58, 0x3e, 0xfa, 0x12, 0x93, 0x3e,
  0x38, 0xf8, 0xb1, 0xbd, 0xd6, 0xd1, 0xb6, 0xbe, 0x53, 0xcc, 0xd3, 0x3e,
  0xf5, 0x8c, 0x92, 0x3e, 0x9f, 0x1d, 0x6c, 0x3e, 0x45, 0x07, 0x7f, 0x3e,
  0xbc, 0x4d, 0xc8, 0x3e, 0x59, 0xe9, 0xea, 0xbd, 0x2b, 0x10, 0x91, 0xbe,
  0xc2, 0x35, 0xef, 0xbe, 0x78, 0x28, 0xf9, 0x3e, 0x59, 0xd5, 0x0e, 0xbf,
  0xae, 0x80, 0xca, 0xbd, 0xac, 0xe1, 0xa0, 0xbe, 0xf5, 0x00, 0x38, 0xbe,
  0x82, 0xa2, 0x68, 0xbc, 0xe2, 0x52, 0xa2, 0x3e, 0xda, 0xd8, 0xe8, 0xbe,
  0xf8, 0x8f, 0x63, 0x3e, 0xf8, 0xb4, 0x8d, 0x3e, 0x23, 0x05, 0x4f, 0x3e,
  0x8f, 0x66, 0x0c, 0x3d, 0x4a, 0xbb, 0x19, 0xbd, 0x4a, 0x8a, 0xb3, 0xbe,
  0x87, 0x55, 0xa8, 0x3d, 0xbb, 0x20, 0x4b, 0xbe, 0xdf, 0x5c, 0x20, 0xbe,
  0x5b, 0xa8, 0x5d, 0xbe, 0xab, 0x13, 0xf9, 0x3d, 0x54, 0xae, 0xb2, 0x3d,
  0x6c, 0x55, 0xcc, 0x3e, 0xd8, 0x51, 0x01, 0x3e, 0xd6, 0xe9, 0x6f, 0xbe,
  0x33, 0x0d, 0x9f, 0xbe, 0x9f, 0xae, 0x20, 0xbd, 0x6f, 0x4f, 0x47, 0xbe,
  0xf2, 0xfa, 0xeb, 0x3e, 0xe3, 0x12, 0x77, 0x3e, 0xb1, 0x86, 0xd2, 0x3d,
  0xea, 0x8c, 0x0d, 0xbe, 0xc4, 0x7c, 0x61, 0x3c, 0x69, 0x1b, 0xae, 0xbe,
  0xf2, 0x79, 0x03, 0x3d, 0xd7, 0x09, 0xba, 0xbd, 0xcb, 0x9b, 0x82, 0x3e,
  0x5b, 0xc7, 0xe9, 0xbb, 0x66, 0x0b, 0xba, 0x3c, 0x4a, 0xd5, 0x12, 0xbd,
  0x94, 0xe5, 0xc0, 0xbe, 0xb3, 0x6e, 0xa5, 0xbd, 0xc1, 0x20, 0xa7, 0x3e,
  0x45, 0x6f, 0xdc, 0x3d, 0xf0, 0x28, 0xbc, 0x3d, 0x62, 0xc6, 0xe9, 0xbd,
  0x5b, 0x84, 0x01, 0x3e, 0xa5, 0x10, 0x88, 0xbd, 0xa1, 0x1c, 0x9f, 0xbe,
  0xf8, 0x7c, 0xf1, 0x3e, 0x4b, 0xe7, 0x0a, 0x3d, 0x26, 0x22, 0xa5, 0xbe,
  0xac, 0x86, 0xa4, 0x3e, 0xb7, 0x20, 0x34, 0x3e, 0x00, 0xef, 0x31, 0x3e,
  0x32, 0xe5, 0xe9, 0xbe, 0x0b, 0xba, 0x49, 0x3e, 0x89, 0x2a, 0x2c, 0xbe,
  0x0e, 0x17, 0x4a, 0x3d, 0x37, 0xac, 0x68, 0xbd, 0xb6, 0x8f, 0x7b, 0xbf,
  0x97, 0x1b, 0x59, 0x3f, 0x51, 0x32, 0x32, 0x3e, 0x0e, 0x83, 0x63, 0xbe,
  0x3b, 0x67, 0x7d, 0x3e, 0x92, 0xb4, 0xa4, 0x3e, 0x0d, 0x5d, 0x6c, 0xbe,
  0xa1, 0xc0, 0x1d, 0xbe, 0xdb, 0xb5, 0x6a, 0x3e, 0xaa, 0xd5, 0x75, 0x3e,
  0xe0, 0xd2, 0xf3, 0xbd, 0xb4, 0x7e, 0xed, 0xbe, 0x18, 0xfe, 0xa5, 0x3e,
  0x2d, 0xe8, 0x64, 0xbe, 0xf8, 0x44, 0x05, 0xbf, 0x41, 0x14, 0x38, 0xbe,
  0xc3, 0x61, 0x82, 0xbd, 0x5f, 0xd5, 0xb0, 0x3d, 0xd4, 0x9a, 0x2a, 0xbe,
  0x45, 0xb3, 0xd0, 0xbd, 0x5d, 0xa9, 0xd8, 0xbe, 0xc1, 0xa6, 0x5e, 0x3e,
  0x90, 0x43, 0x1c, 0xbe, 0x69, 0x1a, 0x3a, 0x3d, 0x8c, 0x35, 0x57, 0x3f,
  0x1d, 0x6e, 0xa1, 0xbe, 0xe2, 0xa4, 0xbb, 0xbe, 0x44, 0x13, 0x81, 0xbe,
  0xd0, 0x3f, 0xc5, 0x3d, 0x45, 0x00, 0x3b, 0x3f, 0xe9, 0xe6, 0x7d, 0xbe,
  0x60, 0x2b, 0x85, 0xbe, 0x5f, 0x35, 0x12, 0x3f, 0xb9, 0x7a, 0x6d, 0xbe,
  0xbe, 0xcb, 0xf2, 0x3e, 0xf8, 0x41, 0x0d, 0xbc, 0x39, 0x3c, 0x0c, 0xbf,
  0xc9, 0x59, 0xa7, 0x3d, 0x1d, 0xcf, 0x03, 0xbf, 0x2c, 0x17, 0xc5, 0xbe,
  0x5e, 0xb6, 0x0b, 0x3d, 0xab, 0x2b, 0x8e, 0x3e, 0x8c, 0x96, 0x09, 0xbf,
  0xdc, 0xce, 0x18, 0xbf, 0xe0, 0xe1, 0x21, 0x3d, 0x46, 0x76, 0xcf, 0x3e,
  0xe9, 0x66, 0x90, 0x3e, 0x85, 0xdd, 0x48, 0xbe, 0x9b, 0xf1, 0x48, 0xbe,
  0xf6, 0xcc, 0x6e, 0x3f, 0x30, 0x55, 0x81, 0x3d, 0xa7, 0x3e, 0x65, 0xbf,
  0x97, 0xcb, 0xd3, 0xbd, 0xca, 0x30, 0xcd, 0x3e, 0xf9, 0x80, 0x7b, 0xbe,
  0x1a, 0xb4, 0x15, 0xbd, 0x5e, 0x30, 0x7c, 0xbd, 0x54, 0x71, 0xf7, 0x3e,
  0x46, 0x66, 0x9d, 0xbe, 0x24, 0x85, 0x48, 0xbf, 0x0e, 0x9d, 0x33, 0xbe,
  0xc7, 0xc1, 0x43, 0x3f, 0x18, 0x70, 0x7e, 0xbe, 0x24, 0xd0, 0x44, 0xbf,
  0x88, 0xa1, 0xa5, 0xbd, 0x8d, 0xf0, 0x54, 0xbe, 0x26, 0xbc, 0x36, 0x3e,
  0x19, 0x67, 0x03, 0xbf, 0x35, 0x35, 0x32, 0xbe, 0xe0, 0xd7, 0xa7, 0x3d,
  0x83, 0x85, 0x7d, 0xbe, 0x81, 0xb1, 0x3f, 0xbf, 0x25, 0xc4, 0xd6, 0xbe,
  0xf2, 0x41, 0x74, 0x3f, 0xb1, 0x95, 0x75, 0x3e, 0xed, 0x6a, 0xf3, 0xbe,
  0xf3, 0xd5, 0x94, 0x3d, 0xf4, 0x0b, 0xf1, 0x3e, 0xee, 0x4e, 0x3a, 0x3d,
  0xd4, 0x84, 0x9c, 0xbe, 0x77, 0x50, 0x48, 0xbe, 0x06, 0x51, 0xa5, 0x3f,
  0xe0, 0x5a, 0x98, 0xbe, 0xba, 0x99, 0xff, 0xbe, 0xbb, 0xe8, 0x73, 0xbd,
  0xe4, 0xfa, 0xa3, 0x3f, 0x7c, 0x5b, 0xa3, 0x3e, 0xd7, 0xba, 0x65, 0xbf,
  0xb2, 0x77, 0x90, 0x3c, 0x79, 0xeb, 0x59, 0xbd, 0x93, 0xf7, 0x6e, 0x3f,
  0x4e, 0xea, 0x5b, 0xbf, 0x41, 0x8d, 0x90, 0x3e, 0xdd, 0x08, 0x8c, 0x3f,
  0x26, 0xa5, 0xde, 0xbe, 0x71, 0x82, 0xae, 0xbe, 0x04, 0xa9, 0x55, 0x3d,
  0x6a, 0x13, 0xc1, 0x3f, 0x58, 0x8c, 0xed, 0x3e, 0xfe, 0x20, 0x2b, 0xbf,
  0xd6, 0x57, 0xac, 0xbc, 0xba, 0x1d, 0xa5, 0xbe, 0xec, 0xbd, 0xee, 0x3e,
  0x62, 0xe0, 0xa8, 0xbe, 0xde, 0x40, 0xef, 0x3b, 0x45, 0x2e, 0x02, 0x3f,
  0x3e, 0xb2, 0x00, 0xbf, 0xba, 0x8a, 0x12, 0xbf, 0x73, 0x84, 0x1e, 0xbf,
  0xc9, 0x9f, 0x8a, 0x3f, 0xb8, 0x1e, 0xc1, 0xbd, 0x39, 0xc6, 0xb0, 0xbe,
  0x0c, 0x8a, 0xd3, 0x3d, 0xcc, 0x94, 0xd1, 0xbf, 0xa9, 0x2c, 0x06, 0xbe,
  0x98, 0x28, 0x00, 0xbf, 0xdc, 0xe1, 0x62, 0x3f, 0x30, 0x1b, 0xae, 0x3d,
  0xeb, 0x07, 0x07, 0xbf, 0x0e, 0x95, 0xd1, 0x3d, 0x4c, 0x81, 0x9a, 0xbe,
  0x31, 0x07, 0x90, 0x3c, 0xc7, 0x99, 0x84, 0xbe, 0xf4, 0x4d, 0x11, 0xbe,
  0xa2, 0x2d, 0x71, 0xbf, 0xaf, 0x79, 0x2c, 0xbf, 0x5e, 0xcc, 0x96, 0xbd,
  0x9b, 0x74, 0x46, 0xbe, 0x4f, 0xad, 0x5a, 0x3e, 0x63, 0x9a, 0xbc, 0x3d,
  0xdb, 0xe8, 0xc3, 0x3e, 0xcd, 0xfa, 0xcf, 0x3e, 0x79, 0xad, 0xf5, 0x3d,
  0xd2, 0xc5, 0x93, 0x3f, 0xfa, 0x47, 0x51, 0xbf, 0x44, 0xcb, 0x4d, 0x3f,
  0xc1, 0xd5, 0x55, 0xbe, 0xe9, 0x98, 0x0e, 0x3b, 0xaa, 0x38, 0x97, 0xbf,
  0xb1, 0x39, 0xf0, 0x3e, 0xa2, 0xf7, 0x09, 0x3d, 0x9b, 0xc9, 0xdd, 0x3e,
  0x29, 0x1f, 0xcb, 0x3e, 0xf0, 0x23, 0x63, 0x3f, 0x9d, 0xfe, 0xf2, 0x3d,
  0xa0, 0x55, 0x6f, 0x3f, 0x2a, 0x25, 0x9f, 0xbe, 0x10, 0xeb, 0x3e, 0x3f,
  0x46, 0xf1, 0xc9, 0xbd, 0xbb, 0x96, 0x81, 0xbe, 0xc0, 0xd5, 0x34, 0xbf,
  0x1a, 0x65, 0x97, 0x3f, 0x96, 0x87, 0xb5, 0xbe, 0x9a, 0x08, 0xbb, 0xbe,
  0xf1, 0x59, 0x19, 0x3f, 0x37, 0xd8, 0x12, 0x3f, 0x60, 0x6e, 0xf9, 0x3d,
  0x4e, 0x57, 0x8f, 0x3e, 0x34, 0xde, 0x8e, 0xbe, 0x18, 0x10, 0x45, 0x3f,
  0x62, 0xa3, 0xec, 0x3d, 0xb0, 0x83, 0xa4, 0x3f, 0x0c, 0x3c, 0x86, 0x3d,
  0x11, 0x0f, 0xbd, 0x3f, 0x34, 0x16, 0x5e, 0xbe, 0xa9, 0x10, 0x4a, 0x3f,
  0xe2, 0x14, 0xaa, 0xbe, 0x24, 0x86, 0xab, 0x3e, 0x1e, 0x91, 0xbe, 0xbe,
  0xe7, 0x6a, 0x4f, 0xbe, 0x35, 0x30, 0xb4, 0x3e, 0xee, 0x4f, 0x17, 0x3f,
  0xe7, 0x0a, 0x98, 0x3e, 0x29, 0x05, 0x11, 0x3f, 0x0c, 0xac, 0x0e, 0xbf,
  0xfe, 0xb1, 0x61, 0x3f, 0x86, 0xc2, 0x65, 0xbf, 0xa4, 0xf4, 0xa5, 0xbe,
  0xc4, 0xda, 0x04, 0x3e, 0xee, 0xa3, 0xb5, 0x3e, 0xf7, 0xbd, 0x81, 0x3f,
  0x9a, 0xc3, 0xc5, 0xbe, 0x05, 0x01, 0x44, 0x3f, 0xe5, 0xb6, 0x92, 0x3e,
  0x40, 0x4f, 0xc1, 0x3e, 0xb2, 0xa3, 0xb4, 0x3e, 0xe9, 0x17, 0x56, 0xbf,
  0xf1, 0x03, 0xc2, 0xbd, 0xb7, 0x42, 0xaa, 0xbe, 0xc2, 0x71, 0x9b, 0xbe,
  0xf4, 0x9e, 0x0f, 0xbf, 0x1e, 0xf9, 0xe7, 0xbb, 0x1b, 0x51, 0x79, 0xbe,
  0xe3, 0x69, 0xca, 0x3d, 0xad, 0xb5, 0x0f, 0x3f, 0xc4, 0xd8, 0xc5, 0xbe,
  0x01, 0xd8, 0x4e, 0x3d, 0x8d, 0xac, 0x63, 0x3e, 0xd3, 0x60, 0xa5, 0x3e,
  0xe9, 0xb8, 0x7b, 0x3e, 0xa5, 0x1e, 0x24, 0x3d, 0x3d, 0x34, 0x15, 0xbc,
  0x23, 0xfc, 0xbc, 0xbf, 0x7c, 0xf1, 0xf9, 0xbe, 0x51, 0x01, 0xa7, 0x3e,
  0x78, 0x00, 0x1e, 0xbf, 0xa8, 0x3f, 0x25, 0xbe, 0x6d, 0x38, 0xe5, 0x3d,
  0xb1, 0xa8, 0xe1, 0x3e, 0x13, 0x73, 0xc5, 0x3e, 0x1e, 0x30, 0xe7, 0x3e,
  0x46, 0x55, 0x89, 0x3e, 0x7b, 0x93, 0xa6, 0xbe, 0xad, 0x2b, 0x7c, 0xbd,
  0xf4, 0xf0, 0x5a, 0xbf, 0x19, 0xd1, 0x25, 0xbf, 0x6d, 0xc5, 0x79, 0x3f,
  0x68, 0x56, 0xa9, 0x3e, 0x3d, 0x15, 0xb6, 0x3e, 0x36, 0x2b, 0x8a, 0x3d,
  0x14, 0x77, 0xf8, 0xbc, 0xdb, 0x99, 0x88, 0xbe, 0x0a, 0x53, 0x8f, 0x3e,
  0xa8, 0x88, 0x9d, 0xbd, 0xd7, 0x65, 0x90, 0x3e, 0xc1, 0x83, 0x75, 0x3e,
  0x9f, 0x6d, 0x12, 0xbf, 0x75, 0x95, 0x12, 0x3f, 0xbb, 0x53, 0xa8, 0xbe,
  0xa7, 0xee, 0x95, 0xbe, 0x3b, 0x4f, 0x50, 0xbe, 0x94, 0xf4, 0xc9, 0xbd,
  0x46, 0x75, 0xb0, 0x3d, 0xc8, 0x46, 0xce, 0xbe, 0xc3, 0x26, 0x08, 0x3e,
  0x55, 0x80, 0x34, 0x3e, 0x6e, 0xd2, 0x66, 0x3e, 0x60, 0xd8, 0x3a, 0xbe,
  0xde, 0x31, 0x0a, 0xbe, 0x23, 0x1b, 0xf2, 0x3d, 0x51, 0x82, 0x93, 0x3e,
  0x49, 0x30, 0x36, 0xbe, 0x2c, 0x40, 0x8b, 0x3f, 0x72, 0x4d, 0xcf, 0xbd,
  0xf7, 0x66, 0x9f, 0xbd, 0xae, 0x82, 0x65, 0xba, 0xe9, 0xd2, 0xc1, 0xbe,
  0xbb, 0x45, 0x6f, 0xbe, 0x64, 0x49, 0xd0, 0x3e, 0x9a, 0xf5, 0x86, 0x3d,
  0xff, 0x50, 0x67, 0x3f, 0x1c, 0xcd, 0xab, 0x3e, 0x90, 0x4e, 0x02, 0xbf,
  0x92, 0xe6, 0x1c, 0x3e, 0xa8, 0x39, 0x8a, 0x3f, 0x76, 0xf3, 0x3e, 0xbe,
  0x47, 0x7e, 0x29, 0x3e, 0x37, 0x16, 0x18, 0x3d, 0x94, 0x5c, 0x12, 0x3f,
  0x1d, 0xaa, 0xa6, 0xbe, 0xaf, 0x65, 0x0e, 0x3e, 0xb9, 0xf7, 0x87, 0xbe,
  0x99, 0xc6, 0x22, 0x3f, 0x49, 0xfc, 0xa7, 0xbe, 0xd9, 0x9f, 0xbe, 0x3d,
  0xe9, 0x87, 0xf1, 0xbd, 0x21, 0x33, 0x86, 0x3f, 0x1a, 0xe1, 0x49, 0xbf,
  0x9b, 0xba, 0x6e, 0xbe, 0xc7, 0x8d, 0x99, 0x3e, 0xe9, 0x5f, 0x2c, 0x3f,
  0xb5, 0x7c, 0x82, 0xbf, 0x5d, 0x46, 0xba, 0x3e, 0xdc, 0xf6, 0x60, 0xbf,
  0xa9, 0x44, 0x1c, 0x3f, 0xad, 0xbc, 0x9c, 0x3d, 0x8f, 0x25, 0x00, 0xbf,
  0xf8, 0x9e, 0xb8, 0xba, 0x11, 0x5f, 0xf6, 0xbd, 0x6d, 0x62, 0xc6, 0xbe,
  0x82, 0xa3, 0x30, 0x3f, 0xb2, 0x10, 0x43, 0x3e, 0xd1, 0x9f, 0xc9, 0xbe,
  0x76, 0x44, 0xce, 0xbd, 0x7d, 0xce, 0x67, 0x3d, 0x01, 0xb7, 0x4a, 0xbf,
  0x6f, 0xf9, 0x0f, 0x3f, 0xcf, 0x50, 0xb3, 0x3d, 0x11, 0x71, 0xf6, 0xbe,
  0xdc, 0x32, 0xcd, 0x3e, 0x17, 0xbd, 0x8a, 0x3d, 0xc8, 0x34, 0xbe, 0x3e,
  0xbe, 0x96, 0x9c, 0x3e, 0x0c, 0xbb, 0xd3, 0xbe, 0xfa, 0x28, 0x87, 0xbc,
  0xf5, 0xf9, 0xdc, 0xbe, 0xcf, 0x49, 0xa0, 0x3e, 0x20, 0xb3, 0xe4, 0xbc,
  0x5f, 0x99, 0x12, 0x3f, 0x63, 0xab, 0x2a, 0x3f, 0xfe, 0x84, 0xc1, 0xbe,
  0x3d, 0x47, 0xfa, 0x3e, 0x63, 0x52, 0xdd, 0xbc, 0x3e, 0xf1, 0xc5, 0x3d,
  0xfa, 0x8d, 0xa1, 0xbd, 0x13, 0xb3, 0x34, 0x3e, 0x4b, 0x1d, 0xe3, 0x3e,
  0x71, 0x52, 0x61, 0x3e, 0xe4, 0xe1, 0xed, 0x3e, 0x03, 0x1a, 0x5e, 0x3f,
  0x14, 0x27, 0x1a, 0x3f, 0x30, 0x35, 0x80, 0x3d, 0x01, 0x77, 0x01, 0x3f,
  0x20, 0xf9, 0x9b, 0x3e, 0x32, 0x3d, 0x78, 0x3e, 0x01, 0x90, 0xae, 0xbe,
  0x6a, 0xe7, 0xfb, 0xbc, 0x8b, 0x2c, 0x4e, 0x3e, 0x20, 0x7e, 0xc0, 0xbd,
  0x75, 0xbb, 0xc1, 0x3e, 0xf8, 0x2d, 0xae, 0x3e, 0x44, 0xf4, 0x34, 0x3f,
  0x22, 0x7d, 0x13, 0xbe, 0xb1, 0xff, 0x36, 0x3a, 0xf2, 0x27, 0x10, 0x3f,
  0xa3, 0x7d, 0xef, 0x3e, 0x01, 0xb2, 0x51, 0xbe, 0x01, 0x60, 0xa6, 0xbe,
  0x85, 0x55, 0xbc, 0xbe, 0xf2, 0x8a, 0x78, 0x3e, 0x9e, 0x6b, 0x99, 0xbd,
  0x55, 0x75, 0x86, 0x3e, 0x9c, 0xd6, 0xa0, 0xbd, 0x89, 0xf1, 0x9b, 0x3e,
  0x98, 0xdc, 0x6f, 0xbf, 0x62, 0x5b, 0x0c, 0xbc, 0x6f, 0x6d, 0xa9, 0xbe,
  0x3a, 0xe7, 0x83, 0x3f, 0x5b, 0x09, 0xea, 0xbe, 0x1f, 0x3c, 0xa1, 0xbd,
  0x11, 0xcf, 0x2a, 0xbe, 0xb0, 0xbc, 0xa7, 0x3e, 0xcf, 0x8a, 0x71, 0x3e,
  0x32, 0x0c, 0x8b, 0x3c, 0x4a, 0xbe, 0x95, 0xbe, 0x92, 0xc9, 0xd4, 0xbc,
  0xc5, 0x04, 0x22, 0xbf, 0x26, 0x39, 0x1b, 0xbe, 0xb2, 0x6d, 0x1d, 0x3f,
  0x51, 0xaf, 0xa9, 0x3f, 0x9f, 0x85, 0x3f, 0xbf, 0x43, 0x73, 0xe6, 0xbd,
  0x02, 0xff, 0x8f, 0xbe, 0x03, 0x88, 0x16, 0x3f, 0xd4, 0x01, 0x4e, 0x3d,
  0x3e, 0xb4, 0x9c, 0x3e, 0x01, 0xce, 0x09, 0xbf, 0xc8, 0x35, 0x2b, 0xbc,
  0x27, 0xc3, 0xb9, 0xbe, 0x0d, 0xe7, 0x00, 0xbe, 0xe4, 0x0c, 0x7d, 0x3f,
  0xdd, 0x2f, 0x3e, 0x3f, 0x25, 0x4c, 0x90, 0xbd, 0xd0, 0x23, 0x08, 0x3e,
  0x01, 0x6e, 0x4e, 0xbe, 0x69, 0x4a, 0x2f, 0x3f, 0xb8, 0x0d, 0xb6, 0xbd,
  0xa5, 0xe4, 0x85, 0xbe, 0x31, 0xc8, 0xd8, 0xbe, 0xc8, 0xbf, 0xcc, 0xbe,
  0x52, 0x0b, 0x31, 0xbc, 0x88, 0x0e, 0xd7, 0x3e, 0xcc, 0x66, 0x0e, 0x3f,
  0x8a, 0xb1, 0x24, 0x3f, 0x57, 0x85, 0x00, 0x3f, 0x07, 0x8a, 0x3d, 0x3f,
  0x03, 0x61, 0xc1, 0x3e, 0x8e, 0xc9, 0x93, 0x3e, 0xa0, 0x32, 0x27, 0x3f,
  0xcc, 0x00, 0xac, 0xbe, 0xcb, 0xc3, 0xad, 0x3d, 0x40, 0xaa, 0x3c, 0x3e,
  0xce, 0x5e, 0x1d, 0xbe, 0xa5, 0xf8, 0x0a, 0xbf, 0x32, 0x17, 0xd9, 0x3e,
  0xe0, 0xf7, 0x80, 0xbd, 0xf7, 0x58, 0xf4, 0xbc, 0x91, 0xff, 0x53, 0x3f,
  0x59, 0x5d, 0x6b, 0xbe, 0xde, 0x6c, 0x60, 0xbe, 0x47, 0x65, 0x90, 0x3e,
  0xde, 0x31, 0xee, 0xbc, 0x1a, 0x1d, 0x5c, 0x3e, 0xff, 0xa8, 0x30, 0xbf,
  0xba, 0x57, 0x6b, 0xbe, 0xfa, 0x01, 0x29, 0x3f, 0xd5, 0x28, 0xed, 0x3c,
  0x6b, 0xc0, 0x0d, 0xbe, 0xd5, 0x05, 0x14, 0x3f, 0x6d, 0x91, 0x7f, 0x3f,
  0x22, 0xd6, 0x07, 0xbe, 0x9e, 0x46, 0x36, 0x3f, 0x4e, 0xf9, 0xdb, 0xbe,
  0xca, 0x2d, 0x86, 0xbe, 0x23, 0x62, 0x60, 0xbe, 0x04, 0x98, 0x02, 0xbf,
  0xd1, 0x97, 0xd1, 0x3e, 0x4b, 0x34, 0x83, 0xbe, 0x9d, 0xda, 0x8e, 0x3f,
  0x1b, 0x25, 0x54, 0x3e, 0x64, 0x00, 0x23, 0x3e, 0x55, 0xbb, 0xec, 0x3d,
  0xe2, 0x3c, 0x32, 0xbe, 0x27, 0xa2, 0x3d, 0xbe, 0xfe, 0xaa, 0xfb, 0xbc,
  0x6a, 0x6b, 0xd8, 0x3c, 0xbd, 0x2e, 0x47, 0x3e, 0x40, 0x75, 0xfe, 0x3c,
  0xe8, 0xc9, 0xff, 0x3d, 0x84, 0xdc, 0xa9, 0x3d, 0x0a, 0x52, 0xc7, 0xbb,
  0x8b, 0xd8, 0x9e, 0x3d, 0x3f, 0x7b, 0x7f, 0x3d, 0x32, 0x18, 0x89, 0x3e,
  0x23, 0x8c, 0xc0, 0xbe, 0x2c, 0xbb, 0x13, 0x3e, 0x98, 0x51, 0xf5, 0x3d,
  0x80, 0x82, 0x84, 0xbd, 0xc4, 0x15, 0xd8, 0xbd, 0x6c, 0xff, 0x06, 0xbf,
  0x5f, 0x78, 0x73, 0x3d, 0x25, 0xe5, 0x72, 0xbe, 0x55, 0xcf, 0x4e, 0x3e,
  0x0f, 0xbd, 0x43, 0xbe, 0xf0, 0xbc, 0x67, 0xbe, 0x07, 0x32, 0x00, 0xbe,
  0x1d, 0x37, 0x86, 0x3e, 0xc4, 0x6a, 0xb7, 0xbd, 0xb1, 0xde, 0x0a, 0xbe,
  0xcf, 0xca, 0x80, 0x3e, 0x4f, 0xb6, 0xb0, 0x3d, 0x57, 0x23, 0x2d, 0xbf,
  0xdc, 0x4a, 0x37, 0xbe, 0xf1, 0xfc, 0xb4, 0x3e, 0x13, 0x69, 0xa6, 0x3e,
  0xa1, 0x6e, 0x32, 0xbe, 0xa7, 0xdb, 0x8c, 0x3e, 0x12, 0x6b, 0x54, 0xbe,
  0xb0, 0xbe, 0x2a, 0xbd, 0x65, 0xc3, 0xc5, 0xbe, 0xae, 0x95, 0xac, 0xbe,
  0x8f, 0x56, 0x17, 0xbe, 0xf1, 0x99, 0x36, 0xbe, 0x88, 0x83, 0x5c, 0xbe,
  0x6b, 0x55, 0x47, 0x3d, 0x80, 0xba, 0xd5, 0x3e, 0xc4, 0x21, 0x4a, 0xbe,
  0xd4, 0xc3, 0x8d, 0xbf, 0xc2, 0x94, 0x2f, 0x3c, 0x65, 0xe9, 0xc3, 0xbd,
  0x59, 0xd8, 0xbb, 0xbe, 0x92, 0xda, 0xc4, 0xbd, 0x05, 0xe5, 0x7e, 0xbe,
  0x39, 0x66, 0xc0, 0x3d, 0x63, 0xbe, 0xd5, 0xbb, 0x84, 0xc8, 0x18, 0xbf,
  0x53, 0x1c, 0x75, 0xbe, 0xfd, 0x05, 0xbb, 0x3d, 0xca, 0x90, 0xff, 0xbe,
  0x06, 0x14, 0xb5, 0xbd, 0x49, 0xc2, 0x44, 0x3e, 0x38, 0x49, 0x04, 0x3e,
  0x9b, 0x42, 0xc9, 0xbe, 0xb1, 0xa6, 0xbd, 0xbd, 0xf8, 0xa0, 0x72, 0xbe,
  0xd7, 0x83, 0x6b, 0xbc, 0xe0, 0xf2, 0x40, 0xbe, 0x7a, 0xaa, 0x12, 0xbe,
  0x19, 0x68, 0x02, 0xbf, 0xde, 0xf2, 0x06, 0x3f, 0xaf, 0x04, 0xf0, 0xbe,
  0x70, 0xd6, 0x15, 0xbf, 0x4a, 0x04, 0xe3, 0xbe, 0x83, 0x63, 0xaf, 0x3e,
  0x56, 0x91, 0x70, 0xbe, 0x00, 0x75, 0x60, 0xbd, 0x6a, 0xa2, 0x48, 0xbd,
  0x33, 0x0f, 0x9a, 0x3e, 0xe3, 0xae, 0x33, 0xbe, 0x20, 0x4e, 0xf2, 0xbe,
  0xd0, 0xf1, 0xb8, 0x3e, 0x09, 0xf1, 0xca, 0x3e, 0x1e, 0x48, 0x8e, 0xbe,
  0x54, 0x90, 0x38, 0xbf, 0x4c, 0xb7, 0x1d, 0x3e, 0x52, 0xd1, 0x76, 0xbe,
  0xb6, 0xc2, 0xa0, 0xbe, 0xf3, 0xd2, 0x18, 0x3e, 0xea, 0xdd, 0x7e, 0x3c,
  0xa3, 0x50, 0x54, 0x3c, 0x57, 0x0e, 0x50, 0x3e, 0x4a, 0x18, 0xd1, 0xbd,
  0x76, 0x1c, 0x8a, 0x3e, 0xf9, 0x66, 0xda, 0xbd, 0x19, 0xf4, 0x8c, 0xbe,
  0xf0, 0xe3, 0x17, 0xbe, 0xf4, 0xc6, 0x29, 0xbd, 0x64, 0x32, 0xb0, 0x3d,
  0x5a, 0xe0, 0x4b, 0xbd, 0xbf, 0xbd, 0xc4, 0x3d, 0xa4, 0x3e, 0x3a, 0xbc,
  0x7b, 0x9d, 0xb5, 0xbb, 0x02, 0x8f, 0xa7, 0x3e, 0xbe, 0x1b, 0xa7, 0xbd,
  0xaa, 0x41, 0x95, 0x3d, 0xcb, 0x10, 0x88, 0xbd, 0x30, 0x51, 0x2a, 0x3b,
  0x12, 0x1b, 0x6b, 0xbe, 0x84, 0x01, 0x41, 0xbd, 0x4a, 0x59, 0x14, 0xbe,
  0x93, 0x41, 0x0e, 0xbe, 0xe8, 0x80, 0x0a, 0x3e, 0xaa, 0x7c, 0x99, 0x3e,
  0xa6, 0x21, 0x5c, 0x3e, 0x60, 0xb8, 0x28, 0x3e, 0xae, 0x09, 0x72, 0x3d,
  0x43, 0x64, 0x04, 0x3e, 0x1e, 0xf5, 0x29, 0xbe, 0xb7, 0x99, 0x59, 0xbf,
  0x73, 0x19, 0x09, 0x3f, 0x3f, 0x24, 0x8c, 0x3e, 0xd4, 0xfd, 0x5c, 0x3e,
  0x39, 0x51, 0xab, 0x3d, 0x8c, 0x58, 0xf1, 0xbc, 0xb6, 0x4c, 0xba, 0x3e,
  0xb7, 0x1f, 0xf6, 0xbd, 0xfc, 0xd6, 0x82, 0x3e, 0x4b, 0x53, 0x67, 0xbf,
  0xa7, 0x32, 0xd6, 0x3d, 0x82, 0x20, 0x60, 0xbe, 0xdb, 0x87, 0x67, 0xbd,
  0x01, 0x0f, 0x79, 0xbe, 0x72, 0xf4, 0x0d, 0x3f, 0xd2, 0x28, 0x24, 0x3c,
  0xc0, 0x43, 0xc6, 0x3c, 0x7d, 0x72, 0x3e, 0xbf, 0x96, 0x84, 0x9b, 0xbe,
  0xd1, 0xf5, 0xf2, 0xbe, 0xee, 0x1b, 0x8f, 0x3d, 0x8f, 0xd2, 0x26, 0xbf,
  0x65, 0x66, 0x93, 0x3e, 0x65, 0x5f, 0x8d, 0xbd, 0xac, 0x7d, 0xaa, 0x3e,
  0x5c, 0x6f, 0x23, 0xbe, 0x6b, 0x83, 0x22, 0xbc, 0xec, 0x6d, 0xae, 0x3e,
  0x24, 0x3a, 0x8e, 0x3d, 0x81, 0xde, 0xb4, 0xbe, 0xc5, 0x29, 0xca, 0xbc,
  0x10, 0xab, 0x3b, 0xbd, 0xb1, 0x17, 0xef, 0x3e, 0x41, 0x96, 0x2e, 0xbf,
  0x82, 0xac, 0x16, 0x3f, 0x4b, 0xfc, 0xeb, 0x3e, 0x51, 0x24, 0xff, 0xbe,
  0x38, 0xdb, 0x21, 0x3f, 0xa9, 0x95, 0x98, 0x3d, 0x1a, 0x8b, 0xb4, 0xbe,
  0xc7, 0x8e, 0x82, 0x3e, 0x91, 0xbb, 0xd8, 0xbe, 0x81, 0xed, 0x85, 0x3e,
  0x0c, 0xc0, 0x2c, 0x3e, 0x22, 0xbc, 0x59, 0x3e, 0xdd, 0x87, 0x74, 0xbe,
  0x84, 0xb2, 0x55, 0x3f, 0xa7, 0x41, 0x8e, 0xbd, 0xd3, 0x15, 0x81, 0x3e,
  0x3b, 0xe3, 0x08, 0x3f, 0x60, 0x08, 0x5f, 0xbd, 0x35, 0x65, 0x9f, 0x3e,
  0x71, 0x0b, 0x04, 0x3e, 0x28, 0xf0, 0x35, 0xbe, 0xff, 0xe9, 0x9c, 0x3e,
  0xdb, 0x7a, 0x50, 0x3e, 0x22, 0x22, 0xab, 0xbe, 0x54, 0xff, 0x60, 0x3d,
  0xdb, 0x49, 0x67, 0x3e, 0x56, 0x79, 0x25, 0xbe, 0xab, 0xd3, 0x7e, 0x3b,
  0x3d, 0xd5, 0x51, 0x3e, 0xd4, 0x36, 0x0a, 0x3e, 0xbf, 0xad, 0xf7, 0xbd,
  0x27, 0x5d, 0x34, 0xbe, 0x79, 0x42, 0xda, 0xbe, 0x36, 0xff, 0xfb, 0xbe,
  0x13, 0x60, 0x04, 0xbe, 0x4d, 0x81, 0x75, 0xbe, 0x57, 0x36, 0x78, 0x3d,
  0x33, 0x15, 0x0e, 0x3e, 0xd3, 0xa9, 0x68, 0x3e, 0xee, 0x09, 0xf6, 0xbd,
  0x7f, 0x9a, 0xc0, 0xbd, 0x6f, 0x12, 0x5e, 0xbe, 0x0d, 0x83, 0x70, 0x3d,
  0x44, 0xc5, 0xaf, 0x3e, 0xe8, 0xf1, 0x0d, 0x3e, 0x2d, 0x15, 0xbf, 0xbd,
  0x8f, 0x20, 0x93, 0x3d, 0x92, 0x24, 0x5f, 0x3e, 0xcc, 0xa0, 0x8c, 0x3d,
  0x4a, 0x3f, 0x29, 0xbd, 0x03, 0xe1, 0x12, 0x3e, 0x58, 0xda, 0xa8, 0x3d,
  0xc7, 0xfb, 0x57, 0x3d, 0xa6, 0xad, 0x33, 0xbe, 0xf4, 0x6d, 0x87, 0x3d,
  0x3c, 0xae, 0x0d, 0xbe, 0x51, 0xe6, 0x41, 0xbe, 0xfa, 0xaa, 0x82, 0xbe,
  0xf1, 0x1a, 0x07, 0x3d, 0x60, 0x98, 0x62, 0xbd, 0x96, 0x48, 0x18, 0x3e,
  0x97, 0x1e, 0xc1, 0xbe, 0x82, 0x99, 0xab, 0x3e, 0x7c, 0xdd, 0x1e, 0xbe,
  0xc1, 0xfc, 0xad, 0xbd, 0xa6, 0xe3, 0x82, 0xbe, 0xc4, 0x85, 0x4c, 0x3a,
  0x89, 0x60, 0x9b, 0xbd, 0x25, 0x5d, 0xac, 0xbe, 0x02, 0x11, 0x0e, 0xbe,
  0xa2, 0xa0, 0x30, 0x3d, 0x5e, 0x96, 0xb4, 0xbd, 0x6f, 0xb6, 0xc6, 0x3e,
  0x9a, 0xbc, 0x65, 0xbd, 0x24, 0x7b, 0x78, 0x3d, 0xe8, 0xf2, 0x9e, 0xbd,
  0x06, 0x00, 0x83, 0x3e, 0xce, 0x40, 0x1b, 0xbe, 0xe6, 0x0a, 0xb1, 0x3e,
  0xe3, 0x3b, 0x13, 0x3e, 0xb2, 0x3c, 0x3a, 0xbd, 0x85, 0x1d, 0xc9, 0xbd,
  0xeb, 0xf1, 0x44, 0xbd, 0x3c, 0x23, 0x57, 0xbe, 0x51, 0xb3, 0x39, 0xbe,
  0xc7, 0x43, 0xee, 0xbe, 0x53, 0x78, 0x85, 0x3e, 0x5a, 0x86, 0x60, 0x3e,
  0x7d, 0xba, 0xd1, 0x3e, 0xd9, 0xb2, 0xa5, 0xbe, 0xbe, 0x14, 0x4a, 0x3d,
  0x85, 0xeb, 0x3b, 0x3f, 0xcf, 0xb9, 0x27, 0xbe, 0xdf, 0x63, 0xe7, 0xbe,
  0x36, 0x75, 0xa5, 0x3d, 0xb1, 0xd8, 0xd1, 0x3e, 0xad, 0xc2, 0x89, 0x3e,
  0xa6, 0x04, 0x28, 0x3d, 0xbe, 0x9e, 0x5c, 0xbe, 0x34, 0xee, 0x11, 0xbe,
  0x9d, 0x1c, 0xf1, 0x3e, 0xf5, 0x93, 0xf6, 0xbe, 0x89, 0x2d, 0x01, 0xbf,
  0xca, 0x57, 0xab, 0x3e, 0x0e, 0xa1, 0xea, 0xbc, 0x78, 0x1f, 0xf3, 0x3e,
  0x23, 0x37, 0xc2, 0x3e, 0xaa, 0x84, 0x12, 0xbe, 0x4f, 0x1b, 0xc3, 0x3e,
  0x68, 0x6b, 0xf7, 0x3d, 0xc3, 0xcf, 0x8b, 0x3e, 0xbd, 0xcb, 0xf9, 0x3d,
  0xff, 0x66, 0xda, 0xbe, 0x44, 0xe7, 0x6a, 0xbd, 0x5f, 0x4d, 0xb9, 0xbe,
  0x15, 0x0b, 0x06, 0x3e, 0x98, 0x9c, 0x88, 0x3e, 0x4e, 0x08, 0x93, 0x3e,
  0xde, 0x39, 0x81, 0x3e, 0x4c, 0xab, 0xde, 0xbc, 0xee, 0x16, 0x0a, 0xbe,
  0x3b, 0x84, 0xa3, 0x3b, 0xac, 0x79, 0x56, 0xbd, 0x9c, 0x3a, 0xe9, 0xbd,
  0xbc, 0x69, 0xa3, 0x3e, 0x77, 0xab, 0x5b, 0xbe, 0x01, 0x4a, 0x66, 0xbe,
  0x1c, 0x7f, 0x99, 0xbe, 0x37, 0x4c, 0x28, 0x3e, 0x44, 0x24, 0xa2, 0x3d,
  0x06, 0xcf, 0xfe, 0xbd, 0xd3, 0xbf, 0xcd, 0xbe, 0xa3, 0x8b, 0x43, 0xbf,
  0xa4, 0xd0, 0x62, 0x3c, 0x08, 0x22, 0x6b, 0xbe, 0x7a, 0xa6, 0x58, 0x3e,
  0xc8, 0x29, 0xc4, 0x3e, 0xcd, 0x8d, 0xfe, 0xbd, 0x35, 0x98, 0x10, 0xbf,
  0xdc, 0xae, 0x17, 0xbf, 0xc4, 0x58, 0x38, 0x3e, 0xb5, 0x9e, 0x85, 0xbe,
  0x20, 0x4d, 0x92, 0xbc, 0xa0, 0x74, 0x56, 0xbd, 0x3e, 0x0a, 0x2b, 0xbe,
  0x81, 0xf1, 0xc7, 0xbd, 0x7e, 0x5d, 0xb6, 0x3c, 0x7d, 0xf1, 0x1d, 0x3e,
  0xbf, 0x72, 0x2f, 0x3e, 0x35, 0xf6, 0x51, 0x3c, 0x10, 0xb6, 0x10, 0xbe,
  0x77, 0x2b, 0x84, 0xbe, 0x85, 0xb4, 0xdd, 0xbc, 0x46, 0xfd, 0x26, 0xbe,
  0xd0, 0xcd, 0xac, 0xbe, 0xf1, 0x23, 0xf3, 0xbd, 0x8f, 0xcc, 0x9b, 0xbe,
  0xd7, 0x7d, 0xa7, 0x3e, 0xa8, 0x1e, 0xd5, 0x3d, 0x3c, 0x5a, 0x9d, 0x3d,
  0xfd, 0x7f, 0x8b, 0xbd, 0xd9, 0x58, 0x63, 0x3e, 0x09, 0xd7, 0x49, 0xbe,
  0x2b, 0x05, 0x17, 0xbf, 0xb2, 0x50, 0x91, 0xbe, 0xaf, 0x13, 0xb0, 0xbe,
  0x7a, 0x89, 0x7d, 0x3e, 0x99, 0x1f, 0x3c, 0x3e, 0x1f, 0x6b, 0x27, 0xbe,
  0xc5, 0x99, 0x08, 0x3e, 0xf7, 0x0e, 0x40, 0x3e, 0x97, 0xdd, 0x0f, 0x3e,
  0x44, 0x43, 0x96, 0xbd, 0x1a, 0x8c, 0x39, 0x3e, 0x6b, 0x96, 0xcf, 0x3d,
  0x98, 0xee, 0x84, 0x3c, 0xa9, 0x26, 0x7e, 0xbd, 0x2b, 0xa8, 0x8a, 0x3e,
  0x9d, 0xc8, 0x0d, 0x3f, 0xcc, 0xbf, 0x88, 0xbd, 0x34, 0x06, 0x69, 0x3e,
  0x95, 0xf7, 0x0e, 0xbe, 0xa8, 0xf5, 0xa7, 0x3d, 0x14, 0xe1, 0x3a, 0x3e,
  0x57, 0x8e, 0x0b, 0xbe, 0x67, 0x61, 0xce, 0x3e, 0x74, 0x8e, 0xaa, 0xbe,
  0xd4, 0x0a, 0x55, 0x3e, 0xda, 0x03, 0x13, 0xbd, 0x54, 0x21, 0xf4, 0xbe,
  0xb8, 0xb1, 0x69, 0xbd, 0xec, 0xdc, 0x0c, 0x3e, 0x4a, 0x6a, 0x92, 0x3e,
  0x1d, 0x38, 0x7d, 0xbe, 0x55, 0x27, 0x77, 0x3d, 0x05, 0x9d, 0xbc, 0x3e,
  0xef, 0x7d, 0xab, 0x3d, 0x1d, 0x7a, 0xac, 0x3d, 0x30, 0x59, 0x37, 0xbe,
  0xd8, 0x96, 0x68, 0xbe, 0x45, 0xbb, 0x50, 0x3e, 0xe1, 0xa5, 0x91, 0x3d,
  0x87, 0x0b, 0x2d, 0x3d, 0x9c, 0x67, 0x7e, 0xbe, 0xe8, 0xe9, 0xd5, 0x3d,
  0xd5, 0xc1, 0x5f, 0xbe, 0xcd, 0x7a, 0xbe, 0x3e, 0x5b, 0x30, 0xae, 0x3e,
  0xc4, 0x1e, 0x3c, 0x3e, 0xbc, 0x12, 0xdc, 0x3d, 0x5c, 0x70, 0xc2, 0xbd,
  0xf0, 0x15, 0xa6, 0x3e, 0xb3, 0xd4, 0x55, 0x3e, 0x37, 0x5d, 0xe4, 0x3b,
  0x99, 0x95, 0xb0, 0xbe, 0x18, 0x66, 0xe1, 0xbe, 0x27, 0xf5, 0x10, 0xbe,
  0xa5, 0x35, 0xb4, 0xbe, 0xd2, 0x11, 0x87, 0xbe, 0x3b, 0xc3, 0x3c, 0xbe,
  0x3e, 0x5c, 0xf6, 0x3d, 0xf2, 0x4c, 0xde, 0xbd, 0x0b, 0x51, 0x5c, 0xbf,
  0x24, 0xae, 0x01, 0x3d, 0xe9, 0x22, 0xad, 0xbe, 0xe0, 0xa1, 0x8e, 0xb9,
  0xe2, 0xc7, 0xb4, 0xbd, 0x74, 0xee, 0xa7, 0xbe, 0x9d, 0x4b, 0x9d, 0x3e,
  0x32, 0x43, 0x1a, 0xbe, 0x39, 0x70, 0xe1, 0x3d, 0x47, 0xf4, 0x02, 0xbf,
  0x70, 0xf1, 0xa8, 0x3e, 0x7c, 0x8b, 0x09, 0x3d, 0xc0, 0xc1, 0x95, 0xbe,
  0x82, 0x65, 0x60, 0x3c, 0xb1, 0x45, 0xb1, 0xbd, 0xe2, 0xa4, 0x48, 0xbc,
  0x35, 0xd7, 0x7e, 0xbd, 0xb9, 0xe8, 0x05, 0xbf, 0x55, 0x1d, 0xa7, 0x3e,
  0xeb, 0x4c, 0x27, 0xbf, 0x93, 0x83, 0x10, 0xbe, 0xf0, 0x05, 0x15, 0x3f,
  0x1b, 0x77, 0x87, 0x3c, 0xe1, 0x87, 0x9f, 0x3e, 0x5e, 0xc3, 0x8f, 0x3e,
  0x79, 0x89, 0xb3, 0xbc, 0xc1, 0x49, 0xfa, 0xbe, 0x9f, 0x6e, 0x93, 0x3e,
  0x06, 0xbd, 0x21, 0x3f, 0xc3, 0x1b, 0x23, 0x3e, 0x73, 0x7a, 0x17, 0x3d,
  0x0f, 0x78, 0xb3, 0xbe, 0xa5, 0x23, 0x99, 0x3c, 0x0c, 0xaf, 0x80, 0x3e,
  0x6e, 0xb7, 0x37, 0xbf, 0xb2, 0x73, 0x16, 0xbe, 0x88, 0xcc, 0x34, 0x3f,
  0x9e, 0xd8, 0x05, 0xbe, 0xee, 0xf1, 0xea, 0xbe, 0x66, 0xe9, 0x60, 0x3e,
  0xc0, 0xd1, 0x9a, 0x3d, 0x33, 0x4f, 0xf1, 0xbe, 0xdf, 0x4e, 0xe0, 0xbc,
  0x70, 0xff, 0x7a, 0x3e, 0x2b, 0x4d, 0x03, 0x3e, 0xb3, 0x72, 0x81, 0xbe,
  0x8c, 0x88, 0x7b, 0x3c, 0x42, 0x1f, 0x09, 0x3e, 0x25, 0xc8, 0x32, 0x3f,
  0x64, 0x04, 0x00, 0xbe, 0x6d, 0x89, 0xea, 0x3e, 0x3b, 0xae, 0xf2, 0xbd,
  0x86, 0x51, 0xaa, 0x3d, 0x9f, 0xe9, 0xf4, 0xbc, 0x27, 0x83, 0xa7, 0xbd,
  0xd2, 0xe2, 0x19, 0xbb, 0x44, 0x6d, 0x3b, 0xbe, 0xc9, 0x86, 0x48, 0x3f,
  0x06, 0x68, 0x1b, 0xbe, 0x75, 0xcb, 0x81, 0xbc, 0x35, 0x8b, 0x12, 0x3f,
  0xc4, 0xe4, 0x08, 0xbd, 0x47, 0xdb, 0x18, 0xbf, 0xca, 0xdf, 0x64, 0x3c,
  0x9d, 0x6d, 0xb6, 0xbd, 0xef, 0x67, 0x1e, 0xbe, 0xf0, 0x94, 0x77, 0xbf,
  0x50, 0xf4, 0xeb, 0x3d, 0x4a, 0x9a, 0x0b, 0x3e, 0x8c, 0xe1, 0x53, 0x3f,
  0x7b, 0x1a, 0x82, 0xbf, 0xff, 0xea, 0xb6, 0xbd, 0xc9, 0x21, 0x39, 0x3f,
  0xa9, 0x28, 0xc6, 0x3d, 0x66, 0x3a, 0xf4, 0xbd, 0xfc, 0x6e, 0x40, 0xbf,
  0x6d, 0x30, 0x2c, 0x3f, 0x0c, 0x36, 0x88, 0xbe, 0xb1, 0x9f, 0x92, 0xbf,
  0xef, 0xca, 0x38, 0x3f, 0x58, 0xbc, 0x55, 0x3e, 0x7a, 0x74, 0xa4, 0x3e,
  0x96, 0x3a, 0x85, 0xbf, 0xf6, 0xcd, 0xd5, 0xbd, 0xeb, 0xcd, 0xb8, 0x3e,
  0x70, 0x15, 0x9c, 0xbd, 0xad, 0x17, 0xb8, 0x3e, 0xc8, 0x28, 0xdd, 0xbe,
  0xf2, 0x29, 0x5f, 0x3e, 0x00, 0x91, 0xf0, 0xbd, 0x91, 0x1b, 0x27, 0xbe,
  0x8e, 0x21, 0xe7, 0x3e, 0xf9, 0xc6, 0xd4, 0x3e, 0x70, 0xf5, 0x46, 0x3f,
  0x04, 0x07, 0x6a, 0xbf, 0x7c, 0x6d, 0x72, 0x3d, 0x4e, 0xba, 0x94, 0x3d,
  0x99, 0x67, 0x73, 0x3d, 0xbb, 0xd8, 0xfa, 0x3f, 0x40, 0x74, 0xd7, 0xbd,
  0x38, 0x89, 0xbe, 0x3e, 0x5a, 0xa2, 0x2d, 0xbf, 0x55, 0x13, 0x08, 0x3f,
  0x0d, 0x5e, 0x02, 0x3f, 0x57, 0xb8, 0xb7, 0x3d, 0x96, 0x30, 0x46, 0x3f,
  0x2e, 0xb0, 0x80, 0xbe, 0xbe, 0x9d, 0xc9, 0x3e, 0x20, 0xa2, 0x0c, 0x3e,
  0xe0, 0xa3, 0x9f, 0x3f, 0x36, 0x66, 0x60, 0x3f, 0x29, 0x58, 0xa9, 0x3e,
  0x65, 0xc2, 0x6a, 0x3e, 0xb8, 0x7f, 0x0e, 0xbf, 0x9a, 0x7d, 0x8c, 0x3e,
  0xbb, 0xbd, 0xea, 0x3d, 0xa3, 0x04, 0xa9, 0xbe, 0xad, 0x5f, 0xfb, 0x3e,
  0x8a, 0xae, 0x68, 0xbf, 0x7c, 0x87, 0x29, 0x3f, 0x24, 0x19, 0x14, 0xbe,
  0x26, 0x35, 0xae, 0x3e, 0xbd, 0xfc, 0xd8, 0x3e, 0x33, 0x55, 0x5c, 0x3f,
  0x3e, 0xe8, 0x48, 0xbf, 0xaa, 0x5e, 0x00, 0xbf, 0xaa, 0x9a, 0x91, 0x3d,
  0x61, 0x66, 0x7d, 0x3e, 0xc9, 0x50, 0xf6, 0xbe, 0xcd, 0x97, 0x9c, 0x3f,
  0xdd, 0x4e, 0x56, 0xbf, 0xe6, 0x5c, 0x78, 0xbe, 0x7d, 0x72, 0x0d, 0xbf,
  0x86, 0x90, 0x38, 0x3e, 0x57, 0x8a, 0x1b, 0x3f, 0x01, 0x42, 0x85, 0x3d,
  0x9d, 0xd1, 0x25, 0xbf, 0x6d, 0x74, 0x77, 0xbd, 0x2d, 0x23, 0x99, 0x3f,
  0x21, 0x52, 0xdc, 0xbe, 0x11, 0xbe, 0xda, 0xbe, 0xee, 0xa3, 0x36, 0x3f,
  0x1f, 0xad, 0x33, 0x3e, 0x58, 0xba, 0x04, 0xbf, 0x21, 0x40, 0x69, 0xbf,
  0x2d, 0x22, 0x0a, 0x3e, 0x9b, 0xf8, 0x28, 0xbf, 0x3e, 0x19, 0x26, 0xbc,
  0x85, 0x2d, 0xea, 0xbe, 0xf2, 0x79, 0xed, 0xbb, 0x0b, 0x17, 0x23, 0x3e,
  0x50, 0xd1, 0x6f, 0xbe, 0x2d, 0x66, 0xd3, 0x3d, 0xa9, 0x3b, 0x68, 0x3f,
  0xfc, 0x82, 0x22, 0x3e, 0xbb, 0xf5, 0x2a, 0xbe, 0x2a, 0x71, 0x62, 0xbf,
  0xf1, 0x1c, 0xe6, 0x3e, 0x56, 0x89, 0x89, 0xbe, 0x38, 0x0e, 0x57, 0x3f,
  0x47, 0x21, 0xe9, 0xbd, 0x97, 0x23, 0x85, 0x3e, 0xe4, 0xb4, 0x4c, 0x3f,
  0x38, 0x5a, 0xba, 0xbe, 0x53, 0x46, 0xe8, 0xbe, 0xf4, 0x61, 0xdb, 0x3e,
  0x3b, 0x4f, 0x9d, 0x3e, 0x36, 0x20, 0x08, 0xbf, 0x75, 0xcb, 0x6b, 0xbe,
  0x36, 0xa8, 0xc2, 0x3d, 0x37, 0x04, 0xb0, 0x3d, 0xe5, 0xce, 0x8c, 0x3f,
  0x49, 0xea, 0x30, 0x3e, 0x9f, 0x4b, 0xd8, 0x3e, 0xc8, 0x52, 0x17, 0x3f,
  0x5b, 0x12, 0xc6, 0x3d, 0x70, 0xb8, 0x83, 0xbd, 0x51, 0x21, 0xe0, 0xbd,
  0xb8, 0x6d, 0x6b, 0x3d, 0x67, 0x87, 0x77, 0xbe, 0xc6, 0xe7, 0x5f, 0x3e,
  0x61, 0x7b, 0x9f, 0xbd, 0x3b, 0x4b, 0x2e, 0x3d, 0xe1, 0x98, 0x0b, 0xbe,
  0xef, 0x7b, 0x67, 0xbd, 0x4e, 0x0d, 0x11, 0x3f, 0xc3, 0x84, 0x36, 0x3d,
  0xa6, 0x1e, 0xc1, 0x3f, 0x0f, 0xa6, 0x9b, 0x3e, 0x54, 0x42, 0xce, 0x3c,
  0x62, 0x0a, 0x02, 0x3f, 0x34, 0xcb, 0x7f, 0x3e, 0x21, 0x3f, 0xa5, 0x3d,
  0x10, 0xab, 0x82, 0xbe, 0x23, 0x3e, 0x25, 0x3e, 0x74, 0x82, 0xdd, 0xbe,
  0x80, 0x0f, 0x32, 0x3d, 0xc0, 0xfd, 0x5b, 0x3f, 0x67, 0xc7, 0xb4, 0x3d,
  0xb2, 0x93, 0x1d, 0x3f, 0x30, 0x9c, 0x18, 0x3e, 0xcd, 0xaf, 0xea, 0xbe,
  0x9d, 0xa9, 0xbd, 0xbe, 0xee, 0x1e, 0x94, 0xbe, 0xa1, 0x31, 0x3e, 0x3e,
  0x52, 0x87, 0xbe, 0xbe, 0x28, 0x3f, 0x57, 0x3e, 0x26, 0xee, 0xb6, 0xbd,
  0xea, 0x09, 0xa2, 0xbd, 0xf2, 0x6f, 0x86, 0x3b, 0x14, 0x45, 0xcd, 0xbe,
  0x4c, 0xad, 0xcf, 0x3e, 0x40, 0x98, 0x17, 0xbf, 0xbc, 0x65, 0x37, 0x3c,
  0x6e, 0x48, 0x91, 0x3e, 0x98, 0x32, 0xaa, 0xbe, 0x19, 0xa7, 0x88, 0x3d,
  0x9f, 0x70, 0xd8, 0xbd, 0xf3, 0x4f, 0x2d, 0x3f, 0xde, 0x23, 0x2b, 0x3e,
  0x5e, 0x24, 0xae, 0xbe, 0xed, 0xb7, 0x04, 0xbe, 0x4f, 0x8a, 0x03, 0x3f,
  0xf0, 0x57, 0xe5, 0x3e, 0x81, 0x90, 0x0f, 0xbf, 0xfa, 0x9e, 0x62, 0x3d,
  0x73, 0xae, 0xa6, 0x3e, 0x25, 0xd2, 0x65, 0xbf, 0x8e, 0x22, 0x01, 0xbc,
  0x94, 0xca, 0x93, 0xbe, 0xa9, 0x77, 0xd6, 0x3e, 0xd4, 0x27, 0xed, 0x3e,
  0x65, 0x44, 0x47, 0x3e, 0x1f, 0x53, 0xa6, 0xbe, 0x8b, 0x6c, 0x2a, 0x3f,
  0x18, 0x0d, 0xfd, 0xbe, 0xb5, 0x74, 0x46, 0xbf, 0x53, 0x91, 0x82, 0x3e,
  0x8e, 0x27, 0xf1, 0x3b, 0x6c, 0x06, 0x35, 0xbf, 0xb9, 0x4a, 0x97, 0xbd,
  0x58, 0xa9, 0x33, 0xbe, 0xe0, 0xfa, 0xa5, 0x3d, 0x56, 0xb0, 0x19, 0xbd,
  0x82, 0x59, 0xce, 0x3e, 0x6b, 0xac, 0xfe, 0x3e, 0x8a, 0xab, 0x2e, 0x3e,
  0xda, 0x5c, 0x33, 0xbd, 0x2f, 0xc2, 0x34, 0x3e, 0x35, 0x40, 0xd0, 0x3d,
  0x4f, 0x3e, 0xdc, 0xbe, 0xa1, 0xe5, 0xc1, 0xbe, 0x27, 0xd8, 0x4b, 0x3d,
  0x96, 0xbf, 0xa2, 0xbe, 0x45, 0x43, 0x8b, 0xbc, 0x4e, 0x65, 0x34, 0xbf,
  0x99, 0x9a, 0x87, 0x3f, 0xbf, 0xd3, 0x54, 0xbe, 0xf2, 0x03, 0xb2, 0x3e,
  0x29, 0x76, 0x9f, 0x3d, 0x4f, 0xd8, 0x8c, 0x3c, 0x06, 0xb3, 0x5a, 0x3f,
  0x15, 0xd6, 0x9a, 0x3d, 0x49, 0xdc, 0xbe, 0x3e, 0x82, 0x8c, 0x5a, 0x3d,
  0x9d, 0x67, 0x35, 0xbf, 0xa7, 0x2e, 0xa5, 0xbe, 0x3c, 0xe7, 0xe9, 0xbe,
  0x6f, 0x82, 0x86, 0xbe, 0x8c, 0x10, 0x48, 0x3e, 0xa7, 0x7f, 0x56, 0x3f,
  0xd5, 0x31, 0x4f, 0xbe, 0x4a, 0x5a, 0x41, 0xbe, 0xd1, 0xa0, 0xda, 0x3e,
  0x1e, 0x8d, 0x1b, 0x3e, 0x56, 0x81, 0xe7, 0x3d, 0x7d, 0x0a, 0x53, 0xbe,
  0x16, 0xa7, 0x3a, 0xbf, 0xf5, 0xad, 0xb8, 0x3e, 0xaf, 0x30, 0x87, 0xbe,
  0xb0, 0xdc, 0xd5, 0x3e, 0xee, 0xa4, 0x60, 0xbe, 0xb4, 0x55, 0xdb, 0x3e,
  0xd3, 0xe4, 0x98, 0xbe, 0x99, 0xa1, 0x57, 0xbe, 0x34, 0x0e, 0x8b, 0x3d,
  0xcb, 0x66, 0x15, 0xbe, 0x18, 0x8f, 0xce, 0x3e, 0x75, 0x3c, 0x25, 0x3e,
  0xec, 0xc1, 0x3f, 0x3e, 0x33, 0x40, 0x19, 0xbe, 0x7a, 0xa2, 0xd3, 0xbe,
  0x82, 0x7b, 0x70, 0xbd, 0x94, 0xe0, 0xb0, 0xbb, 0x90, 0x4e, 0x59, 0x3d,
  0xd0, 0x23, 0x20, 0xbf, 0x53, 0x92, 0xb0, 0x3d, 0xf9, 0x4e, 0xb6, 0xbe,
  0x88, 0x09, 0x86, 0xbe, 0xf7, 0xe8, 0x8e, 0x3d, 0x71, 0x5b, 0x0c, 0x3f,
  0xaa, 0x02, 0x85, 0x3e, 0x24, 0xff, 0x7b, 0x3d, 0x36, 0x2a, 0xb9, 0x3e,
  0x50, 0x9c, 0x5f, 0xbf, 0xd5, 0xc4, 0x75, 0xbe, 0xd4, 0x68, 0x19, 0xbe,
  0xa3, 0xfd, 0x9e, 0x3e, 0xb4, 0x5b, 0x1c, 0xbe, 0x2f, 0x9a, 0xf2, 0xbe,
  0x36, 0xe0, 0x99, 0x3e, 0x4e, 0x8a, 0xd4, 0x3e, 0xcf, 0x7f, 0xd3, 0x3e,
  0x14, 0x72, 0x26, 0x3e, 0xf2, 0x9d, 0x58, 0xbd, 0x4f, 0x8f, 0x83, 0x3d,
  0x91, 0x45, 0x27, 0xbf, 0x5a, 0x8c, 0xda, 0x3d, 0xbd, 0xda, 0x07, 0x3d,
  0xe9, 0x66, 0xd9, 0x3e, 0x1f, 0xa9, 0x37, 0xbe, 0x78, 0xb9, 0xa8, 0x3e,
  0xf2, 0x62, 0x08, 0xbe, 0x34, 0xf8, 0xa4, 0x3e, 0x6b, 0x5d, 0x88, 0x3e,
  0xe7, 0x7f, 0xcc, 0x3e, 0x88, 0xb3, 0x14, 0xbe, 0xd5, 0x8c, 0x6e, 0xbe,
  0xeb, 0xcd, 0x71, 0xbe, 0x77, 0xcc, 0x1f, 0x3e, 0x40, 0xfc, 0xfb, 0x3e,
  0xda, 0x23, 0x9e, 0xbd, 0x67, 0xef, 0x88, 0xbe, 0xa4, 0xb0, 0x51, 0xbc,
  0x15, 0x4e, 0x3e, 0xbf, 0x56, 0xd1, 0xde, 0x3e, 0x22, 0x6b, 0xb1, 0x3e,
  0xda, 0x12, 0x53, 0x3e, 0xbb, 0xcb, 0x66, 0xbe, 0x83, 0x1b, 0xbc, 0xbd,
  0xef, 0x7f, 0xd1, 0xbe, 0xcc, 0x5c, 0xf1, 0x3e, 0x66, 0x78, 0x34, 0x3e,
  0xe5, 0x75, 0x01, 0xb8, 0x53, 0xc2, 0xd8, 0xbd, 0x09, 0xbc, 0xaa, 0x3d,
  0x8b, 0x41, 0x1d, 0xbf, 0xd5, 0x4a, 0xe3, 0xbe, 0x00, 0x05, 0x5c, 0xbc,
  0x02, 0x1a, 0x04, 0x3e, 0x21, 0x2e, 0x32, 0xbf, 0x3e, 0x81, 0x9d, 0x3e,
  0x59, 0xf9, 0x71, 0x3e, 0xe4, 0x69, 0x00, 0x3f, 0xad, 0x41, 0x95, 0x3e,
  0x36, 0xce, 0xb3, 0xbe, 0x90, 0x7f, 0x66, 0xbe, 0xf9, 0x51, 0xa7, 0xbe,
  0xce, 0xf8, 0xc6, 0xbe, 0x21, 0x7a, 0x1c, 0xbf, 0xab, 0xc1, 0x02, 0xbf,
  0x20, 0xc7, 0xf5, 0xbd, 0x4c, 0x27, 0xc5, 0xbd, 0xb0, 0x45, 0x24, 0xbf,
  0xac, 0x51, 0x01, 0x3f, 0xeb, 0x11, 0x15, 0x3e, 0x5a, 0x5f, 0x3a, 0x3f,
  0xc5, 0x96, 0x8f, 0x3e, 0xa4, 0x78, 0x80, 0x3e, 0x72, 0xad, 0x60, 0x3e,
  0x2e, 0x05, 0xd7, 0xbe, 0xd6, 0xa5, 0x41, 0xbd, 0xb1, 0x0e, 0x50, 0xbf,
  0x7a, 0x30, 0xfb, 0x3d, 0xc0, 0xd9, 0xcb, 0x3c, 0x08, 0x8e, 0x4e, 0xbe,
  0xaf, 0xb7, 0x3c, 0x3e, 0x91, 0x55, 0x73, 0x3e, 0x92, 0x69, 0xfd, 0x3e,
  0x1c, 0x0b, 0x2b, 0x3f, 0x3b, 0xf5, 0xbb, 0xbd, 0x9e, 0x80, 0x57, 0x3f,
  0xb9, 0x2c, 0xad, 0xba, 0x2e, 0x2e, 0xb4, 0xbe, 0x16, 0x2a, 0x6f, 0xbe,
  0x4f, 0x97, 0xfd, 0x3e, 0xca, 0xd5, 0xb5, 0xbe, 0xf8, 0x0c, 0x0f, 0x3f,
  0xa3, 0x66, 0xe0, 0x3e, 0xa6, 0xf6, 0x31, 0x3e, 0x5f, 0x8f, 0xb9, 0x3d,
  0x97, 0xd3, 0xb7, 0xbe, 0x65, 0x87, 0xb6, 0xbd, 0x79, 0xe3, 0xba, 0xbe,
  0x14, 0xf5, 0x48, 0xbe, 0xd4, 0x1f, 0x02, 0xbf, 0x03, 0x35, 0x45, 0xbe,
  0xf3, 0x8e, 0xb4, 0x3e, 0x3d, 0xae, 0x53, 0x3f, 0xbd, 0x00, 0x1b, 0x3e,
  0xc6, 0x57, 0x1e, 0xbe, 0xcb, 0xd7, 0x10, 0x3e, 0xf1, 0xd7, 0x01, 0xbd,
  0x6e, 0xbd, 0x25, 0x3d, 0x67, 0x21, 0x86, 0xbe, 0x52, 0xf4, 0x70, 0xbe,
  0xce, 0xbf, 0x34, 0x3e, 0x67, 0x00, 0xba, 0xbe, 0x20, 0x17, 0xb8, 0xbe,
  0x01, 0x10, 0x84, 0x3d, 0xd6, 0x96, 0xaf, 0xbb, 0x7d, 0x22, 0x92, 0xbe,
  0x3e, 0x8f, 0xaf, 0xbe, 0xdc, 0xef, 0x33, 0x3e, 0xdb, 0x36, 0x13, 0x3f,
  0xe7, 0x27, 0xcd, 0xbd, 0x2d, 0xe5, 0x80, 0xbe, 0x7c, 0x55, 0xcc, 0xbc,
  0x4c, 0xfe, 0x48, 0x3f, 0xea, 0xbe, 0x6e, 0xbe, 0x60, 0x85, 0x4d, 0xbf,
  0xad, 0x1a, 0x0a, 0x3e, 0x7e, 0x96, 0x8d, 0x3e, 0xf8, 0x16, 0x3f, 0xbe,
  0x6f, 0xc9, 0x04, 0xbe, 0x58, 0xdb, 0xb8, 0xbe, 0x99, 0x3f, 0x57, 0x3f,
  0x67, 0x61, 0x46, 0xbe, 0x1c, 0x75, 0x50, 0xbf, 0xaf, 0xb2, 0x36, 0x3e,
  0x73, 0xa6, 0xbd, 0x3f, 0x92, 0x9a, 0x80, 0xbe, 0x11, 0xc7, 0xe8, 0xbe,
  0xd8, 0xcb, 0x65, 0xbe, 0xc8, 0x07, 0x0b, 0x3d, 0x33, 0xd6, 0x81, 0x3e,
  0x3b, 0x4c, 0x76, 0xbf, 0x59, 0x47, 0x1f, 0xbe, 0xd5, 0x9f, 0xdd, 0x3e,
  0xba, 0xfe, 0x11, 0xbf, 0x18, 0x1c, 0x68, 0xbf, 0x22, 0x2f, 0x80, 0x3e,
  0x75, 0x65, 0xa1, 0x3f, 0xa8, 0xbd, 0x7b, 0x3d, 0xc9, 0x34, 0x68, 0xbe,
  0x03, 0xa7, 0x94, 0x3e, 0xde, 0x92, 0x42, 0x3e, 0x65, 0x23, 0x62, 0x3e,
  0x5f, 0xf0, 0x35, 0xbf, 0x92, 0x6a, 0x27, 0xbe, 0x95, 0xa8, 0xe0, 0x3f,
  0x1f, 0x81, 0x71, 0xbe, 0x68, 0x30, 0xcf, 0xbe, 0x50, 0x5d, 0x78, 0x3e,
  0xaf, 0xa7, 0x54, 0x3f, 0x32, 0x48, 0xb8, 0x3e, 0xef, 0xc6, 0xf1, 0xbe,
  0xf3, 0x7e, 0x79, 0xbb, 0x80, 0x28, 0xde, 0xbe, 0xd9, 0xe8, 0x31, 0x3f,
  0x0f, 0xd2, 0x83, 0xbf, 0x1d, 0xe4, 0x17, 0x3f, 0x1e, 0x25, 0xe1, 0x3f,
  0xf4, 0x08, 0x7e, 0x3d, 0x13, 0xe8, 0xd3, 0xbe, 0xed, 0xfb, 0x36, 0x3f,
  0xab, 0x2f, 0x98, 0x3f, 0x4b, 0xff, 0x38, 0x3e, 0x2d, 0xf9, 0x77, 0xbf,
  0xb3, 0x99, 0x39, 0x3e, 0xa5, 0x7a, 0x18, 0xbc, 0xc6, 0xe4, 0x09, 0x3f,
  0xcb, 0x57, 0x55, 0xbf, 0xaf, 0xd5, 0xf1, 0x3d, 0x0a, 0x1c, 0xac, 0x3f,
  0x6f, 0x8f, 0x3b, 0xbf, 0x7b, 0x12, 0x53, 0xbe, 0x7b, 0x56, 0x6f, 0x3e,
  0x11, 0xdc, 0x2e, 0x3f, 0x7f, 0x13, 0x8a, 0xbe, 0x73, 0x2e, 0xd7, 0xbe,
  0x37, 0x14, 0xc1, 0x3e, 0x2a, 0x93, 0x8b, 0xbf, 0x01, 0x16, 0x21, 0xbe,
  0x11, 0xba, 0xea, 0xbe, 0xe7, 0xa2, 0xe6, 0x3e, 0x07, 0xdf, 0x4b, 0x3f,
  0x6e, 0x18, 0xb1, 0xbe, 0x58, 0x54, 0x5f, 0x3d, 0xa9, 0x33, 0x14, 0x3e,
  0xe0, 0x3f, 0x88, 0x3e, 0x5f, 0x30, 0x9d, 0xbe, 0xb9, 0x64, 0xaa, 0xbd,
  0xb0, 0xb1, 0xa0, 0xbe, 0xa2, 0x41, 0xa5, 0xbe, 0x33, 0xcc, 0x8d, 0xbd,
  0x1a, 0xfb, 0xd3, 0xbe, 0x00, 0xd2, 0x81, 0xbe, 0xa9, 0xc8, 0x12, 0x3f,
  0x4e, 0x5a, 0x2b, 0x3f, 0x63, 0x01, 0xc2, 0x3e, 0xf4, 0x79, 0x42, 0x3d,
  0x18, 0x92, 0x90, 0x3f, 0xad, 0x37, 0x2b, 0xbf, 0xf8, 0xf7, 0x59, 0x3f,
  0x85, 0xc2, 0xba, 0x3d, 0x4c, 0xaa, 0x65, 0x3c, 0x85, 0xea, 0x8c, 0xbf,
  0x4b, 0x3f, 0x0e, 0xbe, 0xce, 0x8f, 0x97, 0x3d, 0x10, 0xd2, 0xc8, 0x3f,
  0x62, 0x59, 0x07, 0x3f, 0xd0, 0xc5, 0x3a, 0x3f, 0x74, 0xf5, 0x9b, 0x3e,
  0x60, 0x27, 0x4a, 0x3f, 0x33, 0xcb, 0x1e, 0xbf, 0xfc, 0x30, 0x69, 0x3f,
  0x1b, 0x71, 0x7b, 0x3d, 0x16, 0xa3, 0x3c, 0xbd, 0x36, 0xbf, 0xab, 0xbf,
  0x1a, 0x13, 0x1c, 0x3f, 0x35, 0xc0, 0xd8, 0xbe, 0x9a, 0xb3, 0x6a, 0x3e,
  0x27, 0x59, 0x40, 0x3f, 0x1c, 0xae, 0x1d, 0x3f, 0x2c, 0x8d, 0x49, 0x3e,
  0x07, 0xd2, 0x54, 0x3f, 0xf1, 0xb7, 0x70, 0xbe, 0xb5, 0xcf, 0xca, 0x3e,
  0x8c, 0x26, 0xac, 0x3d, 0x0d, 0x81, 0xcd, 0x3f, 0x79, 0x6b, 0xe7, 0x3d,
  0x29, 0xb4, 0xf9, 0x3f, 0x90, 0x95, 0x5e, 0xbf, 0x52, 0x50, 0x7e, 0x3f,
  0xa1, 0x1e, 0x03, 0xbf, 0x74, 0x91, 0xcd, 0x3e, 0xe0, 0xcf, 0x95, 0x3c,
  0x4a, 0xbf, 0x47, 0xbe, 0x9f, 0xb4, 0xea, 0x3e, 0x52, 0xb2, 0x18, 0x3f,
  0x5f, 0xd8, 0x25, 0x3f, 0x80, 0xfd, 0x57, 0x3f, 0xcd, 0x26, 0xc6, 0xbe,
  0x81, 0xf7, 0xbc, 0x3f, 0x22, 0x0e, 0xb9, 0xbf, 0x3a, 0x96, 0x37, 0xbe,
  0xef, 0x6c, 0x25, 0x3f, 0xfa, 0x3d, 0xc2, 0x3d, 0xd6, 0x45, 0xdc, 0x3f,
  0x4d, 0x8a, 0x8f, 0xbe, 0x5d, 0x52, 0x83, 0x3f, 0xc1, 0x0b, 0x2d, 0x3f,
  0xc5, 0xa8, 0x77, 0x3f, 0xab, 0x2a, 0x11, 0x3f, 0x53, 0x9f, 0xb7, 0xbe,
  0x19, 0x9d, 0x7a, 0xbc, 0x45, 0xf7, 0xce, 0xbe, 0xeb, 0x32, 0x83, 0xbe,
  0x93, 0x6a, 0x4d, 0x3e, 0x74, 0x04, 0x1f, 0x3e, 0x57, 0xb6, 0xa7, 0xbf,
  0x05, 0xad, 0x93, 0x3e, 0xc2, 0x5b, 0xf3, 0xbd, 0xa6, 0x7d, 0xc7, 0x3e,
  0x7f, 0xd4, 0x46, 0x3d, 0x02, 0xe9, 0x45, 0xbe, 0x6c, 0x1f, 0xa7, 0x3e,
  0xe6, 0xd6, 0xbb, 0x3e, 0xf4, 0x37, 0x01, 0x3f, 0x2e, 0x9a, 0xed, 0xbd,
  0xee, 0x6f, 0x89, 0xbf, 0x9c, 0x16, 0x20, 0xbe, 0xe7, 0xbc, 0xcd, 0x3e,
  0xd2, 0x52, 0xd0, 0xbe, 0x24, 0xd6, 0x6a, 0xbe, 0xce, 0xc8, 0x17, 0xbe,
  0xf1, 0x8d, 0x8f, 0x3e, 0xe3, 0x80, 0x36, 0x3f, 0x12, 0xc9, 0x83, 0x3e,
  0x88, 0x5e, 0xf0, 0x3e, 0x66, 0x2f, 0x8b, 0x3e, 0xf4, 0x27, 0xca, 0xbd,
  0xf3, 0x04, 0x36, 0x3b, 0x83, 0x46, 0xf4, 0xbe, 0x2d, 0x55, 0x5c, 0x3f,
  0xac, 0xf5, 0xba, 0x3d, 0x32, 0x82, 0xa6, 0xbe, 0x94, 0xae, 0xac, 0xbd,
  0xda, 0x63, 0xf0, 0xbd, 0xb3, 0x7f, 0x14, 0x3e, 0x72, 0x03, 0x96, 0x3d,
  0xd2, 0x1c, 0xc6, 0x3d, 0x82, 0xda, 0x4a, 0x3f, 0xe4, 0x38, 0x20, 0xbd,
  0xb9, 0xba, 0x0a, 0xbe, 0x1e, 0x20, 0x19, 0x3f, 0x6f, 0xf3, 0x2c, 0xbf,
  0xc6, 0x14, 0x7e, 0xbe, 0x5c, 0xa3, 0x4c, 0xbf, 0x57, 0xed, 0xca, 0xbe,
  0x79, 0x8f, 0x36, 0x3d, 0x96, 0x76, 0xe2, 0xbd, 0xf4, 0x21, 0xd4, 0x3d,
  0xc0, 0x1f, 0x0d, 0xbc, 0x27, 0xa5, 0xb2, 0x3e, 0xba, 0x9f, 0xfe, 0xbe,
  0x5c, 0x4c, 0xd2, 0x3d, 0x17, 0x55, 0x09, 0xbe, 0x59, 0x60, 0xdb, 0x3e,
  0x36, 0x15, 0x99, 0x3c, 0x9b, 0x75, 0x20, 0x3f, 0x7b, 0xca, 0x13, 0xbe,
  0x4e, 0xdc, 0xd1, 0xbe, 0xdf, 0x64, 0x11, 0x3e, 0xbb, 0x9d, 0xaa, 0xbe,
  0x61, 0x71, 0x0e, 0x3e, 0xc4, 0xf6, 0xfe, 0x3e, 0x45, 0xc0, 0x7e, 0xbe,
  0xdd, 0x9b, 0x80, 0x3f, 0x4c, 0x09, 0xb7, 0xbc, 0x71, 0x1d, 0xf5, 0xbe,
  0x25, 0x73, 0x11, 0xbd, 0x77, 0xd1, 0x80, 0x3f, 0x92, 0xd5, 0xc9, 0xbe,
  0x92, 0x03, 0xa5, 0xbe, 0xc8, 0xd0, 0xed, 0x3d, 0x3b, 0x35, 0x77, 0x3e,
  0x90, 0x24, 0x13, 0x3f, 0xe3, 0xd1, 0x34, 0x3f, 0xda, 0xc6, 0x07, 0x3e,
  0x00, 0xf9, 0x88, 0x3f, 0x43, 0x4e, 0xc8, 0xbe, 0x15, 0x1f, 0xa5, 0x3e,
  0x10, 0xdf, 0x96, 0xbd, 0x88, 0x88, 0x35, 0x3f, 0xe8, 0x78, 0xbc, 0xbe,
  0xe4, 0xa6, 0x10, 0xbf, 0x8b, 0xda, 0x3d, 0x3f, 0x71, 0x85, 0xe3, 0x3e,
  0xae, 0x14, 0xd6, 0xbe, 0xe2, 0x52, 0x02, 0xbe, 0x5f, 0xf1, 0x05, 0xbf,
  0x75, 0x1d, 0x5a, 0x3f, 0xfd, 0x86, 0xa2, 0x3c, 0x83, 0x3d, 0x69, 0xbe,
  0xa8, 0x62, 0xf6, 0x3e, 0x5c, 0xb7, 0xfe, 0x3c, 0xab, 0x67, 0xd6, 0x3e,
  0x58, 0x28, 0x91, 0x3e, 0x9d, 0x36, 0xc4, 0x3e, 0x2c, 0x8c, 0x06, 0xbf,
  0xe3, 0x8f, 0x1d, 0xbe, 0x57, 0x8a, 0x05, 0x3e, 0x06, 0x6f, 0x2e, 0xbf,
  0xbf, 0xa9, 0x08, 0x3f, 0x3d, 0x32, 0xf0, 0x3d, 0xcc, 0x3b, 0xf4, 0xbd,
  0xd9, 0x1e, 0x2f, 0x3f, 0x65, 0xa5, 0x46, 0x3e, 0x42, 0x28, 0xb8, 0x3f,
  0x2b, 0x6d, 0x9b, 0x3e, 0x82, 0x40, 0x16, 0xbf, 0x92, 0x98, 0x91, 0xbd,
  0xee, 0x54, 0x22, 0xbf, 0x65, 0xaa, 0x8e, 0x3e, 0x10, 0xb4, 0xda, 0x3e,
  0xa7, 0xc3, 0x3c, 0x3f, 0x97, 0x7a, 0xfc, 0x3e, 0xf8, 0xed, 0xc6, 0xbd,
  0xf8, 0x07, 0x7a, 0x3e, 0xec, 0xd1, 0xbb, 0x3e, 0x8c, 0xac, 0x1a, 0x3f,
  0xd8, 0x6e, 0xed, 0xbd, 0x19, 0x66, 0xa3, 0x3e, 0x73, 0x47, 0x90, 0x3e,
  0x3f, 0x34, 0x0a, 0x3f, 0x96, 0x59, 0x61, 0x3f, 0xcb, 0x01, 0xad, 0x3f,
  0xb3, 0xd2, 0x9e, 0x3e, 0x8c, 0xd0, 0x77, 0x3d, 0x6d, 0xdc, 0xd1, 0x3e,
  0x8d, 0xa6, 0xc9, 0xbe, 0x4b, 0xc1, 0xa8, 0x3e, 0x05, 0x1f, 0x89, 0x3e,
  0xb8, 0x0d, 0x05, 0x3d, 0x77, 0x63, 0x73, 0x3e, 0x28, 0x14, 0x56, 0x3e,
  0x01, 0x02, 0xd8, 0x3e, 0x78, 0x02, 0x27, 0x3f, 0xc2, 0x2e, 0xbf, 0x3f,
  0x47, 0x20, 0x6f, 0xbd, 0xb8, 0xb6, 0xc4, 0xbd, 0x13, 0x3e, 0x66, 0x3e,
  0xcc, 0x0a, 0xe9, 0x3e, 0xf0, 0xdb, 0xa4, 0x3e, 0xed, 0x3e, 0xd6, 0xbe,
  0xa1, 0xcc, 0x9d, 0xbe, 0x43, 0x09, 0x8f, 0x3d, 0xe9, 0x36, 0x75, 0x3d,
  0xec, 0xa0, 0x2e, 0xbc, 0x39, 0x30, 0x9d, 0x3e, 0x35, 0xbf, 0x9d, 0x3e,
  0x0e, 0x6f, 0x77, 0xbf, 0x6c, 0x75, 0x62, 0x3e, 0x76, 0x76, 0x08, 0xbe,
  0x79, 0xa1, 0xdf, 0x3f, 0x43, 0x1f, 0xe4, 0xbe, 0x7e, 0xea, 0x21, 0xbc,
  0x5d, 0xc1, 0x5e, 0x3e, 0x3f, 0xaa, 0xe5, 0x3d, 0xe2, 0x23, 0xd7, 0x3e,
  0x09, 0xc5, 0xe4, 0xbe, 0x0d, 0xeb, 0xcb, 0xbe, 0x7d, 0xbf, 0x5d, 0x3d,
